<pad>	0
<unk>	0
<s>	0
</s>	0
▁t	-0
he	-1
▁a	-2
▁the	-3
in	-4
▁s	-5
nd	-6
▁w	-7
▁o	-8
re	-9
ha	-10
ou	-11
▁b	-12
er	-13
▁and	-14
▁m	-15
▁of	-16
it	-17
is	-18
▁f	-19
▁c	-20
ll	-21
on	-22
en	-23
ed	-24
or	-25
ing	-26
es	-27
▁h	-28
▁to	-29
▁d	-30
▁p	-31
▁he	-32
ar	-33
▁in	-34
▁n	-35
▁l	-36
an	-37
as	-38
at	-39
hat	-40
▁th	-41
▁I	-42
▁be	-43
om	-44
▁ha	-45
ot	-46
le	-47
▁g	-48
▁u	-49
▁y	-50
▁A	-51
ow	-52
▁e	-53
ut	-54
se	-55
▁that	-56
ld	-57
id	-58
im	-59
ve	-60
st	-61
gh	-62
ic	-63
▁T	-64
ay	-65
et	-66
ith	-67
▁you	-68
▁for	-69
▁it	-70
▁his	-71
ver	-72
ir	-73
ent	-74
ly	-75
▁with	-76
▁was	-77
ce	-78
▁not	-79
▁wh	-80
▁re	-81
ght	-82
▁on	-83
▁sa	-84
her	-85
od	-86
▁as	-87
▁is	-88
ri	-89
▁And	-90
to	-91
ad	-92
ion	-93
al	-94
▁"	-95
ur	-96
▁S	-97
▁sha	-98
▁we	-99
▁him	-100
▁M	-101
am	-102
ill	-103
▁L	-104
ke	-105
▁un	-106
▁an	-107
▁all	-108
ra	-109
ro	-110
▁se	-111
▁me	-112
▁The	-113
▁B	-114
▁st	-115
▁H	-116
▁her	-117
ch	-118
ore	-119
ain	-120
th	-121
▁they	-122
▁shall	-123
ter	-124
▁k	-125
:1	-126
el	-127
▁1	-128
▁them	-129
ould	-130
il	-131
▁W	-132
▁my	-133
if	-134
ess	-135
▁had	-136
▁at	-137
▁up	-138
▁have	-139
▁thou	-140
rom	-141
and	-142
--	-143
est	-144
▁said	-145
▁G	-146
▁su	-147
▁so	-148
ich	-149
ight	-150
▁com	-151
▁unto	-152
▁but	-153
red	-154
▁from	-155
▁she	-156
ct	-157
▁C	-158
us	-159
▁whe	-160
▁J	-161
all	-162
▁which	-163
▁by	-164
▁man	-165
▁E	-166
▁go	-167
▁de	-168
▁v	-169
pe	-170
▁their	-171
▁this	-172
▁F	-173
▁there	-174
very	-175
ord	-176
ul	-177
ard	-178
:2	-179
ac	-180
ven	-181
▁sh	-182
▁2	-183
▁will	-184
▁con	-185
▁do	-186
▁ne	-187
▁or	-188
qu	-189
ab	-190
▁were	-191
▁r	-192
OR	-193
ant	-194
▁are	-195
ORD	-196
ge	-197
▁LORD	-198
▁al	-199
ast	-200
▁O	-201
ong	-202
▁li	-203
sel	-204
▁ye	-205
ers	-206
ok	-207
our	-208
art	-209
ation	-210
▁lo	-211
em	-212
▁out	-213
ous	-214
▁P	-215
ust	-216
pp	-217
▁kn	-218
."	-219
▁no	-220
▁one	-221
ame	-222
res	-223
ol	-224
ake	-225
fore	-226
au	-227
pt	-228
▁thy	-229
▁who	-230
ak	-231
ome	-232
▁when	-233
▁your	-234
han	-235
▁D	-236
os	-237
own	-238
▁N	-239
▁ag	-240
▁sp	-241
one	-242
eth	-243
ine	-244
ind	-245
▁He	-246
out	-247
▁God	-248
ive	-249
ound	-250
▁ab	-251
▁am	-252
▁fe	-253
ren	-254
▁j	-255
ie	-256
reat	-257
,"	-258
ings	-259
▁ex	-260
um	-261
▁thee	-262
▁say	-263
itt	-264
self	-265
▁ch	-266
urn	-267
▁upon	-268
ck	-269
ist	-270
▁day	-271
un	-272
op	-273
▁le	-274
▁again	-275
ild	-276
ity	-277
▁what	-278
▁br	-279
▁But	-280
▁af	-281
ather	-282
▁pl	-283
ig	-284
▁3	-285
ate	-286
ace	-287
▁would	-288
▁into	-289
ah	-290
▁Mr	-291
▁more	-292
ud	-293
▁any	-294
▁pe	-295
ass	-296
ther	-297
ice	-298
ost	-299
▁know	-300
:3	-301
▁wor	-302
ell	-303
▁very	-304
▁if	-305
▁hand	-306
▁off	-307
▁bl	-308
ide	-309
ose	-310
▁Th	-311
▁pro	-312
▁could	-313
ouse	-314
ure	-315
▁son	-316
ness	-317
ite	-318
ies	-319
▁Is	-320
ort	-321
ry	-322
▁see	-323
other	-324
▁like	-325
▁been	-326
▁tw	-327
ough	-328
▁us	-329
ved	-330
way	-331
▁ar	-332
▁now	-333
▁great	-334
ue	-335
nder	-336
ep	-337
▁before	-338
oun	-339
old	-340
are	-341
▁came	-342
▁than	-343
ink	-344
ade	-345
▁can	-346
▁hat	-347
▁tim	-348
▁come	-349
▁did	-350
▁every	-351
▁over	-352
ise	-353
▁then	-354
ish	-355
ance	-356
ne	-357
▁king	-358
ittle	-359
hed	-360
▁R	-361
ood	-362
▁fl	-363
ag	-364
▁tr	-365
▁en	-366
▁other	-367
fe	-368
av	-369
ment	-370
wn	-371
ull	-372
able	-373
▁some	-374
▁house	-375
▁good	-376
▁qu	-377
▁down	-378
ward	-379
▁little	-380
me	-381
ip	-382
ars	-383
we	-384
ople	-385
ree	-386
▁child	-387
▁should	-388
▁pr	-389
▁even	-390
ence	-391
▁ac	-392
▁people	-393
ick	-394
so	-395
▁ro	-396
ath	-397
▁after	-398
▁look	-399
▁our	-400
ire	-401
▁made	-402
▁men	-403
▁4	-404
▁For	-405
uch	-406
rael	-407
▁Israel	-408
▁may	-409
▁time	-410
▁ri	-411
▁im	-412
ount	-413
ause	-414
▁per	-415
▁about	-416
▁co	-417
orn	-418
ack	-419
end	-420
▁hath	-421
▁dis	-422
▁how	-423
lt	-424
ied	-425
ble	-426
▁might	-427
▁these	-428
▁thr	-429
▁Y	-430
▁ear	-431
▁let	-432
ru	-433
▁spe	-434
ife	-435
▁bo	-436
ves	-437
ile	-438
▁such	-439
▁only	-440
▁land	-441
?"	-442
▁cl	-443
▁went	-444
▁word	-445
:4	-446
▁own	-447
▁father	-448
▁must	-449
ally	-450
▁bec	-451
▁po	-452
▁ser	-453
▁sm	-454
▁against	-455
▁children	-456
▁It	-457
▁fir	-458
oth	-459
▁much	-460
per	-461
▁two	-462
ried	-463
▁make	-464
▁way	-465
▁pass	-466
age	-467
alk	-468
▁where	-469
ving	-470
▁part	-471
▁pre	-472
pl	-473
▁gr	-474
ious	-475
ach	-476
igh	-477
ful	-478
▁long	-479
▁gl	-480
ither	-481
ave	-482
▁also	-483
ng	-484
▁fo	-485
▁ad	-486
▁under	-487
▁Then	-488
▁think	-489
▁first	-490
▁ey	-491
▁sc	-492
▁Wh	-493
ert	-494
les	-495
ought	-496
▁things	-497
ress	-498
▁Whe	-499
▁call	-500
ark	-501
▁comm	-502
▁thing	-503
▁old	-504
▁cha	-505
▁away	-506
led	-507
▁bre	-508
ap	-509
be	-510
ft	-511
▁rem	-512
▁str	-513
▁well	-514
▁She	-515
▁des	-516
▁yet	-517
▁beg	-518
▁In	-519
▁never	-520
▁'	-521
▁K	-522
▁Mrs	-523
▁acc	-524
iss	-525
ted	-526
▁Be	-527
▁heart	-528
te	-529
▁(	-530
▁wat	-531
▁seem	-532
▁himself	-533
▁ever	-534
▁give	-535
!"	-536
▁bet	-537
▁ho	-538
▁comp	-539
ions	-540
ian	-541
▁head	-542
▁wr	-543
▁As	-544
lem	-545
▁nor	-546
ady	-547
▁fa	-548
▁right	-549
ber	-550
hold	-551
ary	-552
▁thought	-553
▁put	-554
▁sw	-555
▁sto	-556
ever	-557
ub	-558
ign	-559
▁saying	-560
▁saw	-561
▁5	-562
▁shalt	-563
▁cont	-564
hing	-565
▁being	-566
▁through	-567
ond	-568
hes	-569
ty	-570
▁vo	-571
▁sl	-572
cl	-573
▁Lord	-574
▁turn	-575
ily	-576
:5	-577
▁har	-578
leas	-579
▁ind	-580
aven	-581
▁heard	-582
▁earth	-583
▁bel	-584
aught	-585
▁fri	-586
▁ke	-587
▁because	-588
▁To	-589
▁ra	-590
▁many	-591
▁ob	-592
▁take	-593
anc	-594
ering	-595
▁has	-596
▁those	-597
▁without	-598
▁name	-599
apt	-600
▁So	-601
▁work	-602
of	-603
▁too	-604
▁just	-605
▁set	-606
▁sin	-607
▁place	-608
aw	-609
▁here	-610
mm	-611
▁del	-612
▁though	-613
▁most	-614
▁end	-615
ory	-616
less	-617
▁They	-618
vant	-619
get	-620
pen	-621
▁hast	-622
llow	-623
▁pri	-624
▁wha	-625
▁There	-626
▁among	-627
ody	-628
▁6	-629
▁found	-630
▁7	-631
ations	-632
▁eyes	-633
▁life	-634
ts	-635
ect	-636
▁cons	-637
▁wom	-638
oy	-639
▁El	-640
ans	-641
ew	-642
▁pleas	-643
▁whom	-644
▁ans	-645
ps	-646
vil	-647
▁last	-648
iah	-649
▁ret	-650
▁gi	-651
ern	-652
▁nothing	-653
▁friend	-654
▁res	-655
row	-656
▁10	-657
ang	-658
▁sea	-659
▁speak	-660
ated	-661
▁done	-662
▁hear	-663
ff	-664
▁sou	-665
:6	-666
fect	-667
und	-668
▁ent	-669
▁saith	-670
ons	-671
▁ap	-672
ove	-673
▁still	-674
▁world	-675
▁back	-676
▁pres	-677
▁its	-678
▁Ch	-679
oss	-680
▁same	-681
▁att	-682
▁car	-683
▁young	-684
▁happ	-685
▁days	-686
▁St	-687
▁11	-688
▁brought	-689
▁voice	-690
▁What	-691
ared	-692
▁9	-693
irit	-694
▁forth	-695
▁sil	-696
▁night	-697
▁8	-698
med	-699
▁That	-700
▁took	-701
lf	-702
▁tell	-703
:7	-704
▁love	-705
▁side	-706
▁gra	-707
ob	-708
▁imp	-709
▁sure	-710
▁three	-711
▁walk	-712
ertain	-713
▁Now	-714
▁face	-715
ix	-716
▁another	-717
▁mother	-718
▁sons	-719
ock	-720
▁bu	-721
▁servant	-722
ors	-723
:8	-724
▁called	-725
:9	-726
▁priest	-727
▁An	-728
▁therefore	-729
:10	-730
ged	-731
▁If	-732
▁hands	-733
selves	-734
gether	-735
pect	-736
▁sent	-737
ret	-738
▁far	-739
▁Miss	-740
▁eat	-741
▁som	-742
▁command	-743
the	-744
▁soon	-745
▁rest	-746
▁bring	-747
:11	-748
den	-749
ways	-750
iv	-751
▁seemed	-752
▁Jes	-753
▁app	-754
▁round	-755
▁Dav	-756
▁ask	-757
▁return	-758
:12	-759
▁jud	-760
ites	-761
ield	-762
▁sec	-763
▁cried	-764
▁David	-765
▁open	-766
ister	-767
▁tak	-768
▁high	-769
▁stand	-770
▁This	-771
▁Of	-772
ling	-773
ower	-774
▁light	-775
oud	-776
oin	-777
▁You	-778
:13	-779
▁te	-780
▁soul	-781
▁Ab	-782
▁When	-783
▁Jer	-784
ss	-785
ible	-786
▁words	-787
▁belie	-788
ished	-789
aptain	-790
▁left	-791
ult	-792
▁inst	-793
ase	-794
▁while	-795
ner	-796
▁quite	-797
▁Mar	-798
atter	-799
aid	-800
:14	-801
▁rep	-802
▁sub	-803
▁thine	-804
▁heaven	-805
▁12	-806
▁herself	-807
most	-808
▁14	-809
ered	-810
▁war	-811
▁city	-812
▁looked	-813
▁sat	-814
▁always	-815
.--	-816
▁13	-817
▁Jesus	-818
▁years	-819
▁fam	-820
▁together	-821
▁ang	-822
▁feel	-823
uc	-824
▁neither	-825
iz	-826
:15	-827
ash	-828
▁mine	-829
▁want	-830
:16	-831
ener	-832
ank	-833
▁supp	-834
hab	-835
▁prop	-836
▁Z	-837
▁certain	-838
gy	-839
rew	-840
ph	-841
▁seen	-842
▁both	-843
oses	-844
ning	-845
▁mar	-846
▁bro	-847
▁kind	-848
ething	-849
▁dr	-850
iness	-851
▁appe	-852
not	-853
▁rec	-854
tle	-855
eed	-856
ording	-857
for	-858
▁wind	-859
▁inc	-860
▁till	-861
▁count	-862
▁whole	-863
ities	-864
▁toward	-865
▁Jud	-866
▁thereof	-867
ised	-868
▁death	-869
▁whale	-870
:17	-871
mer	-872
▁gave	-873
ting	-874
▁morn	-875
mb	-876
▁fire	-877
▁Jo	-878
▁wa	-879
▁half	-880
▁behold	-881
▁tre	-882
The	-883
▁full	-884
▁Al	-885
ci	-886
elt	-887
ject	-888
▁woman	-889
▁daught	-890
▁spirit	-891
▁stood	-892
▁ship	-893
oment	-894
▁pers	-895
▁find	-896
ia	-897
▁mind	-898
▁V	-899
▁arm	-900
▁ass	-901
▁mount	-902
ens	-903
▁moment	-904
▁Ar	-905
▁dist	-906
▁Moses	-907
▁law	-908
dom	-909
▁new	-910
sand	-911
▁keep	-912
▁We	-913
▁sle	-914
▁talk	-915
ces	-916
▁thousand	-917
:18	-918
ple	-919
▁cle	-920
▁pur	-921
▁U	-922
air	-923
sh	-924
▁morning	-925
▁tri	-926
▁once	-927
mma	-928
az	-929
▁according	-930
▁something	-931
outh	-932
vent	-933
▁poss	-934
▁rece	-935
▁dw	-936
ates	-937
ction	-938
▁underst	-939
▁15	-940
▁conf	-941
:19	-942
ched	-943
undred	-944
▁hundred	-945
▁given	-946
▁Le	-947
▁gold	-948
▁disc	-949
▁evil	-950
▁fall	-951
▁sun	-952
▁With	-953
▁dead	-954
▁get	-955
▁blood	-956
▁water	-957
▁better	-958
oub	-959
ened	-960
▁answe	-961
erc	-962
▁chan	-963
ict	-964
▁gu	-965
▁mean	-966
:20	-967
ude	-968
▁burn	-969
ail	-970
▁brother	-971
but	-972
ason	-973
▁Emma	-974
▁Br	-975
▁ste	-976
▁swe	-977
▁present	-978
cept	-979
its	-980
▁int	-981
vers	-982
cc	-983
▁How	-984
▁told	-985
▁answered	-986
▁mon	-987
alem	-988
▁All	-989
▁four	-990
▁art	-991
▁poor	-992
▁Jerus	-993
▁cannot	-994
▁Judah	-995
▁myself	-996
▁Jerusalem	-997
▁el	-998
ins	-999
ib	-1000
▁Mac	-1001
▁Thou	-1002
▁18	-1003
▁dra	-1004
▁gener	-1005
ale	-1006
▁mid	-1007
▁door	-1008
▁themselves	-1009
ween	-1010
▁cour	-1011
▁dark	-1012
▁enough	-1013
▁sight	-1014
▁sister	-1015
▁strong	-1016
ane	-1017
▁16	-1018
uck	-1019
▁Let	-1020
▁fear	-1021
▁body	-1022
uth	-1023
gypt	-1024
▁His	-1025
▁vis	-1026
▁thus	-1027
▁Egypt	-1028
▁rather	-1029
oke	-1030
ments	-1031
▁began	-1032
ual	-1033
▁near	-1034
▁unc	-1035
▁follow	-1036
ek	-1037
▁pray	-1038
:21	-1039
ief	-1040
ows	-1041
ird	-1042
▁Har	-1043
ere	-1044
▁dest	-1045
▁min	-1046
!--	-1047
▁going	-1048
▁each	-1049
▁between	-1050
▁Chr	-1051
▁knew	-1052
ross	-1053
▁tem	-1054
▁offering	-1055
man	-1056
aul	-1057
▁contin	-1058
▁22	-1059
▁19	-1060
▁indeed	-1061
▁live	-1062
pped	-1063
:22	-1064
ined	-1065
▁whose	-1066
ec	-1067
ial	-1068
▁turned	-1069
ired	-1070
read	-1071
▁Where	-1072
▁Christ	-1073
ery	-1074
▁cast	-1075
▁hard	-1076
ten	-1077
▁hold	-1078
▁My	-1079
ived	-1080
▁gent	-1081
▁don	-1082
▁wife	-1083
inor	-1084
▁sur	-1085
▁having	-1086
land	-1087
▁hon	-1088
▁home	-1089
▁hope	-1090
thing	-1091
▁Elinor	-1092
▁almost	-1093
har	-1094
▁wo	-1095
▁mouth	-1096
gth	-1097
▁20	-1098
▁Sy	-1099
▁gone	-1100
▁believe	-1101
esh	-1102
ken	-1103
▁sword	-1104
▁understand	-1105
▁cr	-1106
feren	-1107
▁best	-1108
▁small	-1109
▁hel	-1110
▁21	-1111
icked	-1112
▁wild	-1113
ute	-1114
ets	-1115
fort	-1116
ced	-1117
ilt	-1118
▁few	-1119
▁hum	-1120
▁room	-1121
ular	-1122
▁air	-1123
▁dif	-1124
ately	-1125
▁hour	-1126
▁reg	-1127
▁spake	-1128
eous	-1129
ures	-1130
▁sing	-1131
▁peace	-1132
▁No	-1133
ains	-1134
riet	-1135
▁inter	-1136
:23	-1137
▁dear	-1138
▁pra	-1139
cri	-1140
ream	-1141
▁mak	-1142
ained	-1143
▁taken	-1144
▁Father	-1145
▁really	-1146
xt	-1147
ense	-1148
▁sk	-1149
ines	-1150
ents	-1151
▁nat	-1152
▁ord	-1153
ung	-1154
▁mo	-1155
itude	-1156
right	-1157
li	-1158
▁judg	-1159
--"	-1160
uri	-1161
▁sort	-1162
▁white	-1163
orrow	-1164
▁fore	-1165
aut	-1166
▁power	-1167
osed	-1168
ently	-1169
▁prin	-1170
▁remem	-1171
ianne	-1172
▁none	-1173
▁At	-1174
▁dep	-1175
reg	-1176
▁23	-1177
▁conc	-1178
▁year	-1179
▁compan	-1180
ron	-1181
ER	-1182
▁host	-1183
▁Behold	-1184
aces	-1185
hil	-1186
:24	-1187
night	-1188
▁Marianne	-1189
irc	-1190
ned	-1191
wer	-1192
▁Ham	-1193
▁known	-1194
aster	-1195
▁less	-1196
haps	-1197
▁cut	-1198
▁tra	-1199
You	-1200
ition	-1201
athe	-1202
▁Turn	-1203
▁felt	-1204
▁does	-1205
▁Q	-1206
let	-1207
▁field	-1208
▁offer	-1209
ued	-1210
▁che	-1211
▁joy	-1212
▁char	-1213
Oh	-1214
ited	-1215
▁boy	-1216
int	-1217
roy	-1218
▁dwell	-1219
▁Who	-1220
▁On	-1221
thren	-1222
ange	-1223
▁ref	-1224
▁asked	-1225
▁however	-1226
▁Thus	-1227
:25	-1228
▁17	-1229
▁doub	-1230
ones	-1231
▁matter	-1232
▁red	-1233
▁servants	-1234
▁24	-1235
▁brethren	-1236
▁add	-1237
▁bus	-1238
▁perfect	-1239
ham	-1240
▁cur	-1241
▁inf	-1242
▁prom	-1243
ime	-1244
owed	-1245
▁lay	-1246
illed	-1247
▁daughter	-1248
▁em	-1249
iled	-1250
▁else	-1251
ser	-1252
▁Ahab	-1253
▁righteous	-1254
▁hor	-1255
els	-1256
ured	-1257
▁feet	-1258
▁unt	-1259
▁reason	-1260
body	-1261
▁wicked	-1262
▁five	-1263
rest	-1264
▁Fr	-1265
aint	-1266
▁King	-1267
▁within	-1268
▁fathers	-1269
ook	-1270
over	-1271
▁drink	-1272
▁faith	-1273
▁seven	-1274
▁Se	-1275
▁aff	-1276
ote	-1277
▁lar	-1278
,'	-1279
▁Am	-1280
▁Je	-1281
▁bread	-1282
▁prophe	-1283
dden	-1284
▁Man	-1285
▁destroy	-1286
bull	-1287
attle	-1288
▁sudden	-1289
ier	-1290
▁eye	-1291
▁ter	-1292
▁ground	-1293
enty	-1294
▁shew	-1295
▁num	-1296
▁read	-1297
▁wish	-1298
iver	-1299
▁gre	-1300
ught	-1301
▁run	-1302
ley	-1303
▁Captain	-1304
▁Turnbull	-1305
:26	-1306
▁next	-1307
amp	-1308
▁act	-1309
▁fell	-1310
ceed	-1311
ying	-1312
▁six	-1313
▁boat	-1314
og	-1315
oney	-1316
▁meet	-1317
▁merc	-1318
▁manner	-1319
aring	-1320
▁sound	-1321
ene	-1322
▁exp	-1323
▁happy	-1324
▁Re	-1325
ical	-1326
▁break	-1327
▁Anne	-1328
▁care	-1329
▁black	-1330
▁Sir	-1331
▁gard	-1332
▁ext	-1333
▁truth	-1334
▁inv	-1335
▁cause	-1336
als	-1337
▁circ	-1338
▁above	-1339
▁glory	-1340
▁since	-1341
▁De	-1342
▁got	-1343
▁ins	-1344
▁help	-1345
▁need	-1346
▁repl	-1347
▁bless	-1348
▁passed	-1349
eter	-1350
▁bes	-1351
ift	-1352
cess	-1353
▁West	-1354
▁enem	-1355
▁wall	-1356
▁month	-1357
HA	-1358
:27	-1359
▁25	-1360
raid	-1361
▁cities	-1362
ks	-1363
full	-1364
ating	-1365
▁whether	-1366
▁_	-1367
ably	-1368
▁wood	-1369
▁least	-1370
▁26	-1371
aves	-1372
ching	-1373
▁Syme	-1374
▁es	-1375
▁ir	-1376
▁ten	-1377
day	-1378
▁why	-1379
▁Nor	-1380
▁holy	-1381
▁flesh	-1382
▁looking	-1383
lic	-1384
▁Sp	-1385
ighb	-1386
▁opp	-1387
oc	-1388
ages	-1389
▁evening	-1390
hn	-1391
alm	-1392
arted	-1393
hy	-1394
itten	-1395
▁stra	-1396
bs	-1397
▁sn	-1398
by	-1399
▁play	-1400
▁sir	-1401
▁family	-1402
▁person	-1403
▁fru	-1404
▁second	-1405
▁Therefore	-1406
anger	-1407
▁sit	-1408
▁leave	-1409
▁afraid	-1410
▁Harriet	-1411
It	-1412
▁By	-1413
▁alone	-1414
ants	-1415
▁lau	-1416
▁Heaven	-1417
▁coming	-1418
▁comfort	-1419
ho	-1420
ention	-1421
ls	-1422
▁tou	-1423
▁Will	-1424
▁others	-1425
iet	-1426
ider	-1427
▁wonder	-1428
▁short	-1429
▁gentlem	-1430
here	-1431
ury	-1432
▁replied	-1433
act	-1434
urch	-1435
▁beaut	-1436
▁commanded	-1437
pr	-1438
aim	-1439
ump	-1440
▁occ	-1441
▁sleep	-1442
▁stren	-1443
▁equ	-1444
▁John	-1445
▁forg	-1446
ots	-1447
▁rel	-1448
▁true	-1449
▁perhaps	-1450
that	-1451
▁fin	-1452
owing	-1453
ney	-1454
▁ut	-1455
What	-1456
hind	-1457
▁Her	-1458
▁Why	-1459
▁until	-1460
oll	-1461
▁Ye	-1462
▁wit	-1463
▁sign	-1464
:28	-1465
equ	-1466
acle	-1467
▁times	-1468
tar	-1469
▁letter	-1470
▁deep	-1471
▁die	-1472
▁div	-1473
▁god	-1474
▁begin	-1475
▁answer	-1476
▁towards	-1477
▁tab	-1478
▁seek	-1479
▁wait	-1480
▁midst	-1481
▁En	-1482
▁Lev	-1483
▁along	-1484
▁bra	-1485
▁spr	-1486
▁sweet	-1487
▁Or	-1488
▁dire	-1489
▁captain	-1490
isf	-1491
▁Ad	-1492
▁reign	-1493
▁strange	-1494
▁priests	-1495
▁bed	-1496
▁book	-1497
▁send	-1498
▁silver	-1499
▁concern	-1500
▁27	-1501
▁glad	-1502
▁beast	-1503
▁behind	-1504
ati	-1505
▁low	-1506
▁cong	-1507
▁suff	-1508
▁Do	-1509
ified	-1510
▁waters	-1511
use	-1512
ides	-1513
ship	-1514
▁Weston	-1515
gg	-1516
▁These	-1517
▁obser	-1518
▁delight	-1519
used	-1520
▁cry	-1521
▁hur	-1522
fully	-1523
▁Phil	-1524
▁doubt	-1525
▁large	-1526
ask	-1527
ances	-1528
▁bear	-1529
men	-1530
lton	-1531
▁Not	-1532
▁kept	-1533
▁mis	-1534
▁ele	-1535
▁mult	-1536
▁garden	-1537
Ian	-1538
house	-1539
ressed	-1540
▁creat	-1541
:29	-1542
But	-1543
▁Sha	-1544
▁decl	-1545
▁dec	-1546
▁bar	-1547
▁eng	-1548
▁sim	-1549
▁ill	-1550
▁acqu	-1551
▁mist	-1552
▁chief	-1553
▁partic	-1554
▁mad	-1555
▁Saul	-1556
▁country	-1557
up	-1558
fic	-1559
▁lam	-1560
cious	-1561
▁deal	-1562
▁MacIan	-1563
▁hus	-1564
▁par	-1565
▁twenty	-1566
▁Ca	-1567
ledge	-1568
▁draw	-1569
▁trans	-1570
orm	-1571
▁dri	-1572
ually	-1573
▁fine	-1574
bb	-1575
rove	-1576
▁adm	-1577
▁course	-1578
▁friends	-1579
▁possess	-1580
No	-1581
And	-1582
iles	-1583
▁money	-1584
▁instant	-1585
band	-1586
▁Ben	-1587
hen	-1588
ided	-1589
oken	-1590
▁pol	-1591
▁pret	-1592
▁pleasure	-1593
▁Ne	-1594
utes	-1595
▁fast	-1596
▁mighty	-1597
ott	-1598
▁aw	-1599
▁disp	-1600
▁prof	-1601
▁satisf	-1602
▁differen	-1603
▁returned	-1604
▁28	-1605
▁prep	-1606
▁shad	-1607
▁appear	-1608
iling	-1609
▁From	-1610
▁stre	-1611
▁ought	-1612
▁living	-1613
:30	-1614
iqu	-1615
ubb	-1616
▁est	-1617
▁form	-1618
oured	-1619
wor	-1620
medi	-1621
▁Lady	-1622
▁kingdom	-1623
▁Oh	-1624
▁fair	-1625
▁haue	-1626
▁lord	-1627
▁Alice	-1628
▁build	-1629
▁cloud	-1630
▁often	-1631
.'	-1632
▁stri	-1633
▁anything	-1634
olon	-1635
ising	-1636
oh	-1637
head	-1638
▁expect	-1639
▁spoken	-1640
▁nations	-1641
▁quest	-1642
▁Knight	-1643
▁broken	-1644
aby	-1645
rupt	-1646
▁Que	-1647
ze	-1648
▁hill	-1649
tern	-1650
▁Jac	-1651
▁Sam	-1652
▁able	-1653
▁laid	-1654
▁past	-1655
oura	-1656
▁lad	-1657
▁corn	-1658
▁Jacob	-1659
▁ready	-1660
▁written	-1661
▁Knightley	-1662
jo	-1663
ius	-1664
▁Son	-1665
▁immedi	-1666
▁congreg	-1667
sp	-1668
▁}	-1669
▁wis	-1670
ident	-1671
ray	-1672
▁pit	-1673
▁fruit	-1674
▁itself	-1675
enn	-1676
▁dream	-1677
HE	-1678
?--	-1679
ues	-1680
▁Sh	-1681
▁free	-1682
:31	-1683
▁fool	-1684
▁tree	-1685
▁kings	-1686
Yes	-1687
▁inte	-1688
▁altar	-1689
wards	-1690
▁real	-1691
▁women	-1692
▁congregation	-1693
zz	-1694
aron	-1695
▁gir	-1696
▁judgment	-1697
▁received	-1698
▁31	-1699
ames	-1700
▁bow	-1701
itting	-1702
▁One	-1703
▁fav	-1704
▁Elton	-1705
▁visit	-1706
▁affect	-1707
▁business	-1708
ony	-1709
▁ran	-1710
▁coun	-1711
▁hair	-1712
▁sacri	-1713
atch	-1714
iful	-1715
▁ide	-1716
ards	-1717
▁cor	-1718
▁burnt	-1719
▁table	-1720
▁tabern	-1721
▁husband	-1722
;--	-1723
▁thir	-1724
▁strength	-1725
fter	-1726
▁wise	-1727
▁fight	-1728
▁either	-1729
▁remember	-1730
▁seed	-1731
▁honour	-1732
▁use	-1733
▁circum	-1734
▁lady	-1735
rac	-1736
▁stay	-1737
erness	-1738
▁Aaron	-1739
,)	-1740
ats	-1741
▁adv	-1742
▁curi	-1743
▁fellow	-1744
▁neighb	-1745
▁walked	-1746
▁Can	-1747
▁gate	-1748
po	-1749
▁obl	-1750
▁pain	-1751
ison	-1752
▁bad	-1753
▁cond	-1754
ointed	-1755
▁particular	-1756
ler	-1757
lon	-1758
yond	-1759
▁def	-1760
▁eas	-1761
▁Brown	-1762
▁Eng	-1763
ai	-1764
co	-1765
▁consider	-1766
oved	-1767
ached	-1768
▁Fl	-1769
▁fig	-1770
▁Wood	-1771
▁join	-1772
▁bur	-1773
▁dro	-1774
▁certainly	-1775
imes	-1776
▁fif	-1777
▁pie	-1778
▁foot	-1779
▁plain	-1780
▁trees	-1781
▁heal	-1782
▁prov	-1783
▁works	-1784
▁delive	-1785
ax	-1786
▁30	-1787
tered	-1788
TER	-1789
▁29	-1790
▁mere	-1791
▁tabernacle	-1792
ouble	-1793
▁sail	-1794
soever	-1795
▁object	-1796
!'	-1797
uff	-1798
ific	-1799
▁Jew	-1800
▁dev	-1801
ingly	-1802
▁praise	-1803
hu	-1804
Well	-1805
cher	-1806
lish	-1807
▁meas	-1808
▁common	-1809
▁opened	-1810
▁32	-1811
▁meat	-1812
▁silence	-1813
ye	-1814
,--	-1815
app	-1816
▁rejo	-1817
idd	-1818
urs	-1819
▁Sol	-1820
▁wine	-1821
▁trust	-1822
▁Luc	-1823
▁fat	-1824
▁quick	-1825
▁interest	-1826
▁sy	-1827
ives	-1828
ural	-1829
▁abs	-1830
▁col	-1831
omin	-1832
▁Yet	-1833
▁san	-1834
itted	-1835
▁fort	-1836
▁lost	-1837
▁shar	-1838
cho	-1839
▁ed	-1840
wise	-1841
wood	-1842
▁river	-1843
▁worth	-1844
▁neighbour	-1845
.)	-1846
OD	-1847
ush	-1848
rying	-1849
▁gathe	-1850
▁uncle	-1851
▁suddenly	-1852
▁eld	-1853
▁top	-1854
▁inher	-1855
▁master	-1856
▁account	-1857
iot	-1858
unt	-1859
▁Go	-1860
ches	-1861
ger	-1862
cend	-1863
omon	-1864
▁esc	-1865
▁hid	-1866
▁suppose	-1867
▁immediately	-1868
▁ce	-1869
▁len	-1870
▁except	-1871
▁daughters	-1872
:32	-1873
▁Pha	-1874
▁Wha	-1875
▁bit	-1876
▁stru	-1877
▁Which	-1878
▁knowledge	-1879
rie	-1880
▁Ed	-1881
▁save	-1882
▁song	-1883
▁judge	-1884
▁Solomon	-1885
▁respect	-1886
arb	-1887
riage	-1888
▁mercy	-1889
▁point	-1890
▁super	-1891
▁direct	-1892
pend	-1893
ries	-1894
▁Lou	-1895
▁Mary	-1896
▁iniqu	-1897
▁Come	-1898
▁delivered	-1899
ey	-1900
▁ma	-1901
form	-1902
▁ves	-1903
ready	-1904
▁capt	-1905
▁vain	-1906
▁close	-1907
▁inherit	-1908
▁subject	-1909
▁gentleman	-1910
eg	-1911
umb	-1912
lled	-1913
what	-1914
▁cra	-1915
▁twel	-1916
▁beyond	-1917
▁vessel	-1918
▁Baby	-1919
▁Caes	-1920
▁secret	-1921
▁Woodhouse	-1922
▁ast	-1923
▁fanc	-1924
▁deliver	-1925
▁enemies	-1926
▁thoughts	-1927
ians	-1928
▁Spirit	-1929
▁become	-1930
▁THE	-1931
▁Thy	-1932
▁heav	-1933
▁Babylon	-1934
▁33	-1935
▁id	-1936
▁pa	-1937
like	-1938
▁Pro	-1939
athan	-1940
▁rose	-1941
▁tong	-1942
▁number	-1943
▁gathered	-1944
▁wilderness	-1945
▁exc	-1946
olonel	-1947
▁sanct	-1948
err	-1949
ging	-1950
▁anger	-1951
▁laugh	-1952
▁third	-1953
▁Philist	-1954
▁receive	-1955
:33	-1956
▁spo	-1957
▁breat	-1958
▁forward	-1959
pon	-1960
▁oil	-1961
owers	-1962
▁lead	-1963
▁purp	-1964
▁bright	-1965
▁appeared	-1966
▁followed	-1967
ify	-1968
▁enc	-1969
▁lif	-1970
▁sep	-1971
▁hosts	-1972
▁wrong	-1973
▁clot	-1974
▁sake	-1975
▁party	-1976
▁making	-1977
▁continued	-1978
▁righteousness	-1979
sy	-1980
▁ways	-1981
▁coven	-1982
▁Gre	-1983
▁conce	-1984
▁favour	-1985
▁length	-1986
▁darkness	-1987
▁ru	-1988
ater	-1989
ters	-1990
with	-1991
▁Ell	-1992
▁GOD	-1993
ature	-1994
▁Jane	-1995
▁gods	-1996
▁mark	-1997
▁used	-1998
▁green	-1999
▁inhab	-2000
▁longer	-2001
empt	-2002
▁imag	-2003
▁lear	-2004
▁Phara	-2005
▁hardly	-2006
▁places	-2007
▁covenant	-2008
ient	-2009
▁val	-2010
▁cold	-2011
▁desp	-2012
▁expl	-2013
iously	-2014
▁sense	-2015
▁stone	-2016
▁Pharaoh	-2017
arm	-2018
cks	-2019
▁met	-2020
bered	-2021
▁died	-2022
▁cross	-2023
▁utter	-2024
▁Colonel	-2025
bed	-2026
▁eag	-2027
▁conv	-2028
▁list	-2029
▁requ	-2030
▁already	-2031
▁CHA	-2032
▁comes	-2033
▁horse	-2034
▁Church	-2035
▁battle	-2036
▁please	-2037
▁op	-2038
▁mur	-2039
▁Dash	-2040
▁Here	-2041
▁kill	-2042
▁bound	-2043
▁watch	-2044
▁seeing	-2045
He	-2046
▁Per	-2047
▁fish	-2048
▁vill	-2049
▁proper	-2050
PTER	-2051
▁Frank	-2052
▁oblig	-2053
▁discip	-2054
▁CHAPTER	-2055
▁company	-2056
now	-2057
vel	-2058
▁Sus	-2059
▁fact	-2060
▁devil	-2061
▁eight	-2062
▁incre	-2063
▁means	-2064
▁comple	-2065
▁beginning	-2066
▁became	-2067
▁remain	-2068
▁yourself	-2069
lly	-2070
▁vi	-2071
▁hop	-2072
▁leg	-2073
ously	-2074
▁tast	-2075
▁human	-2076
itation	-2077
▁twelve	-2078
▁carried	-2079
ech	-2080
▁repe	-2081
▁town	-2082
▁serve	-2083
▁feelings	-2084
▁question	-2085
mon	-2086
▁cub	-2087
▁idea	-2088
▁famil	-2089
▁regard	-2090
▁Dashwood	-2091
▁cho	-2092
▁Whale	-2093
ended	-2094
▁silent	-2095
▁general	-2096
gr	-2097
une	-2098
▁gar	-2099
▁iron	-2100
▁surpr	-2101
▁change	-2102
▁entire	-2103
▁pretty	-2104
▁possible	-2105
cul	-2106
hem	-2107
▁Pr	-2108
ices	-2109
▁lie	-2110
claim	-2111
▁serv	-2112
▁After	-2113
▁quiet	-2114
▁spread	-2115
▁Levites	-2116
▁princes	-2117
how	-2118
▁Elliot	-2119
▁window	-2120
hel	-2121
iel	-2122
▁34	-2123
cause	-2124
▁spoke	-2125
▁thyself	-2126
▁concerning	-2127
iew	-2128
▁blue	-2129
bes	-2130
ety	-2131
ior	-2132
▁fle	-2133
▁sold	-2134
etimes	-2135
▁Louis	-2136
▁added	-2137
▁resol	-2138
▁surely	-2139
you	-2140
ixed	-2141
▁den	-2142
ience	-2143
▁early	-2144
▁spirits	-2145
▁Mo	-2146
aked	-2147
cell	-2148
▁mod	-2149
ement	-2150
▁girl	-2151
▁opin	-2152
▁purs	-2153
▁shut	-2154
▁Their	-2155
▁clean	-2156
▁cometh	-2157
br	-2158
amin	-2159
▁cru	-2160
▁mus	-2161
▁won	-2162
▁bare	-2163
▁exact	-2164
:34	-2165
ners	-2166
▁Fair	-2167
▁iniquity	-2168
ike	-2169
▁Jos	-2170
▁inn	-2171
ouses	-2172
▁Jose	-2173
▁wisdom	-2174
▁witness	-2175
▁multitude	-2176
uel	-2177
come	-2178
▁big	-2179
▁yea	-2180
▁sick	-2181
▁soft	-2182
ression	-2183
▁Joseph	-2184
▁Wherefore	-2185
▁sal	-2186
roach	-2187
▁Jews	-2188
▁east	-2189
▁lest	-2190
▁Susan	-2191
▁Edward	-2192
▁standing	-2193
▁mountains	-2194
ased	-2195
cted	-2196
▁pay	-2197
worth	-2198
▁pull	-2199
▁scar	-2200
▁court	-2201
▁order	-2202
▁filled	-2203
▁Ex	-2204
▁ca	-2205
eness	-2206
▁case	-2207
▁port	-2208
▁rise	-2209
▁warm	-2210
▁necess	-2211
▁36	-2212
▁yes	-2213
▁Enter	-2214
▁doing	-2215
▁prophet	-2216
gin	-2217
▁Ma	-2218
▁lab	-2219
where	-2220
▁viol	-2221
▁Stubb	-2222
▁inhabit	-2223
ening	-2224
▁clear	-2225
▁throne	-2226
▁ve	-2227
▁reb	-2228
▁grow	-2229
▁line	-2230
▁summ	-2231
▁week	-2232
▁wanted	-2233
▁pleased	-2234
ume	-2235
▁sol	-2236
ility	-2237
▁born	-2238
▁charac	-2239
▁Philistines	-2240
sc	-2241
arch	-2242
▁mag	-2243
▁doth	-2244
▁quar	-2245
▁sens	-2246
▁smote	-2247
▁talking	-2248
▁offerings	-2249
bey	-2250
▁bene	-2251
▁rich	-2252
▁dread	-2253
▁stones	-2254
bo	-2255
ead	-2256
kes	-2257
▁Mus	-2258
asion	-2259
▁different	-2260
▁Cl	-2261
rand	-2262
▁fur	-2263
alley	-2264
raham	-2265
▁ears	-2266
▁grave	-2267
▁Louisa	-2268
▁Abraham	-2269
IN	-2270
eem	-2271
▁Sm	-2272
▁ark	-2273
orses	-2274
▁held	-2275
▁gather	-2276
ms	-2277
oor	-2278
aving	-2279
isher	-2280
▁Char	-2281
▁cove	-2282
▁view	-2283
▁smile	-2284
▁belong	-2285
▁prophets	-2286
▁inheritance	-2287
▁Ah	-2288
fice	-2289
ized	-2290
▁pub	-2291
ffect	-2292
▁stat	-2293
▁test	-2294
▁grace	-2295
▁heads	-2296
▁seems	-2297
▁sorrow	-2298
▁therein	-2299
▁speaking	-2300
▁Un	-2301
resh	-2302
equeg	-2303
▁calm	-2304
▁late	-2305
▁wilt	-2306
▁grass	-2307
▁harpo	-2308
▁danger	-2309
▁forget	-2310
▁Dr	-2311
arer	-2312
▁Jon	-2313
▁sky	-2314
▁self	-2315
▁slow	-2316
▁lived	-2317
▁sevent	-2318
▁entered	-2319
▁circumst	-2320
▁Churchill	-2321
:35	-2322
▁loud	-2323
▁safe	-2324
▁blind	-2325
▁accept	-2326
▁believed	-2327
▁disciples	-2328
▁understanding	-2329
no	-2330
ked	-2331
▁mot	-2332
▁van	-2333
▁dece	-2334
▁incl	-2335
▁jour	-2336
▁caught	-2337
▁desire	-2338
▁temple	-2339
▁sitting	-2340
▁beautiful	-2341
ution	-2342
▁compl	-2343
▁enter	-2344
▁pleasant	-2345
▁straight	-2346
ma	-2347
der	-2348
aken	-2349
ront	-2350
▁sho	-2351
▁crow	-2352
▁const	-2353
▁state	-2354
▁tribe	-2355
▁squ	-2356
rible	-2357
ounded	-2358
▁angel	-2359
▁valley	-2360
▁Because	-2361
▁trouble	-2362
▁mountain	-2363
▁affection	-2364
hua	-2365
▁hen	-2366
▁bird	-2367
▁lips	-2368
▁prod	-2369
enance	-2370
▁houses	-2371
▁departed	-2372
fax	-2373
iar	-2374
vol	-2375
asse	-2376
ince	-2377
▁din	-2378
▁fly	-2379
▁desol	-2380
▁lifted	-2381
▁Fairfax	-2382
▁fr	-2383
▁rul	-2384
uring	-2385
uster	-2386
▁Jenn	-2387
▁prob	-2388
▁pros	-2389
▁stret	-2390
▁thick	-2391
▁taking	-2392
▁thence	-2393
▁compass	-2394
▁minutes	-2395
▁acquaint	-2396
▁sometimes	-2397
side	-2398
eless	-2399
▁wrath	-2400
▁tongue	-2401
?'	-2402
pent	-2403
eterm	-2404
iting	-2405
▁step	-2406
▁conse	-2407
▁loved	-2408
▁forgot	-2409
▁horses	-2410
cy	-2411
hant	-2412
▁Eli	-2413
under	-2414
▁Paul	-2415
▁broad	-2416
▁dwelt	-2417
▁youth	-2418
▁across	-2419
▁thirty	-2420
▁blessed	-2421
▁purpose	-2422
dd	-2423
▁37	-2424
▁cap	-2425
▁road	-2426
▁show	-2427
vation	-2428
▁Every	-2429
▁separ	-2430
▁thinking	-2431
▁perfectly	-2432
▁sacrifice	-2433
ug	-2434
ague	-2435
▁hig	-2436
▁bull	-2437
▁perce	-2438
▁nature	-2439
ape	-2440
ont	-2441
ints	-2442
reme	-2443
▁arms	-2444
▁hung	-2445
▁mess	-2446
▁prev	-2447
▁flock	-2448
▁persu	-2449
▁shame	-2450
▁story	-2451
▁determ	-2452
▁Jennings	-2453
▁stranger	-2454
▁happiness	-2455
▁afterwards	-2456
▁everything	-2457
▁sav	-2458
▁ver	-2459
▁Lucy	-2460
▁contr	-2461
▁grand	-2462
▁north	-2463
▁south	-2464
▁excell	-2465
▁whales	-2466
▁greater	-2467
wh	-2468
▁bord	-2469
▁vine	-2470
▁Shall	-2471
▁equal	-2472
▁tried	-2473
▁talked	-2474
▁da	-2475
▁mer	-2476
ination	-2477
▁character	-2478
omp	-2479
uer	-2480
▁emb	-2481
▁drew	-2482
▁grie	-2483
▁slain	-2484
▁exceed	-2485
▁natural	-2486
▁service	-2487
▁Queequeg	-2488
▁families	-2489
bit	-2490
ours	-2491
▁imm	-2492
ively	-2493
▁More	-2494
▁Went	-2495
▁fill	-2496
▁hang	-2497
▁built	-2498
▁fifty	-2499
▁heavy	-2500
▁acquaintance	-2501
mp	-2502
:36	-2503
▁led	-2504
▁und	-2505
▁shout	-2506
▁Though	-2507
att	-2508
▁pun	-2509
▁sor	-2510
▁vir	-2511
▁hence	-2512
▁around	-2513
▁cubits	-2514
▁convers	-2515
▁turning	-2516
uct	-2517
▁Pe	-2518
aded	-2519
rent	-2520
ster	-2521
▁enj	-2522
▁Cass	-2523
▁Take	-2524
▁cheer	-2525
▁taste	-2526
▁Caesar	-2527
ria	-2528
hamed	-2529
inary	-2530
pping	-2531
▁arri	-2532
▁maid	-2533
▁meant	-2534
▁sheep	-2535
▁Wentworth	-2536
semb	-2537
umed	-2538
▁fal	-2539
▁lean	-2540
▁seat	-2541
▁aston	-2542
▁figure	-2543
Why	-2544
ented	-2545
▁proud	-2546
▁slight	-2547
▁ashamed	-2548
▁mention	-2549
▁opinion	-2550
▁unclean	-2551
▁presence	-2552
amed	-2553
heth	-2554
▁age	-2555
▁sus	-2556
▁fled	-2557
▁cover	-2558
▁former	-2559
▁repeated	-2560
▁Ho	-2561
▁ev	-2562
aced	-2563
aged	-2564
rose	-2565
There	-2566
▁moon	-2567
▁noise	-2568
My	-2569
ex	-2570
▁anx	-2571
iment	-2572
ordan	-2573
idence	-2574
▁hours	-2575
▁stars	-2576
▁Jordan	-2577
▁charge	-2578
▁complete	-2579
▁yourselves	-2580
ric	-2581
airs	-2582
▁glor	-2583
oughby	-2584
▁touch	-2585
▁Buster	-2586
▁struck	-2587
▁obliged	-2588
▁walking	-2589
▁Willoughby	-2590
ism	-2591
irth	-2592
oked	-2593
▁Eph	-2594
▁Ind	-2595
▁Some	-2596
▁Well	-2597
▁hate	-2598
▁faces	-2599
▁worse	-2600
▁hearts	-2601
▁streets	-2602
aan	-2603
▁Ag	-2604
▁Bet	-2605
▁ere	-2606
▁glo	-2607
▁var	-2608
▁tent	-2609
othing	-2610
▁effect	-2611
▁giving	-2612
▁journey	-2613
▁countenance	-2614
▁di	-2615
room	-2616
▁Macb	-2617
▁pure	-2618
▁rain	-2619
▁rock	-2620
▁says	-2621
▁slew	-2622
▁wond	-2623
▁enjoy	-2624
▁feast	-2625
▁sought	-2626
▁exactly	-2627
▁happened	-2628
▁Sc	-2629
▁det	-2630
▁sett	-2631
▁vast	-2632
▁arose	-2633
▁eager	-2634
▁offic	-2635
▁Joshua	-2636
▁breath	-2637
▁counsel	-2638
▁inhabitants	-2639
Th	-2640
asp	-2641
That	-2642
king	-2643
uced	-2644
▁Cha	-2645
▁dare	-2646
▁agree	-2647
▁begat	-2648
sed	-2649
▁38	-2650
▁40	-2651
erem	-2652
ming	-2653
▁fre	-2654
usion	-2655
▁fart	-2656
iction	-2657
▁chari	-2658
▁crowd	-2659
▁forty	-2660
▁stead	-2661
▁depart	-2662
▁fallen	-2663
..	-2664
reth	-2665
▁fro	-2666
▁pal	-2667
▁Brut	-2668
▁deck	-2669
▁pati	-2670
ollect	-2671
ishment	-2672
▁health	-2673
▁hither	-2674
▁transg	-2675
▁offered	-2676
dle	-2677
ffe	-2678
▁move	-2679
▁whis	-2680
▁carry	-2681
▁occasion	-2682
go	-2683
ols	-2684
pes	-2685
▁35	-2686
pher	-2687
sell	-2688
▁Our	-2689
ortal	-2690
▁Gent	-2691
▁Moab	-2692
▁cent	-2693
▁post	-2694
▁tail	-2695
▁coast	-2696
▁enemy	-2697
kn	-2698
▁*	-2699
:37	-2700
ises	-2701
well	-2702
▁cal	-2703
cially	-2704
▁fancy	-2705
▁English	-2706
▁feeling	-2707
▁`	-2708
uge	-2709
oint	-2710
osen	-2711
▁Even	-2712
▁earn	-2713
▁heark	-2714
▁shore	-2715
▁beasts	-2716
▁diffic	-2717
▁suffer	-2718
▁satisfied	-2719
ims	-2720
iers	-2721
uous	-2722
▁nigh	-2723
▁front	-2724
▁sorry	-2725
▁write	-2726
aughter	-2727
▁beside	-2728
▁months	-2729
▁promise	-2730
How	-2731
alb	-2732
▁La	-2733
▁Qu	-2734
hest	-2735
field	-2736
leton	-2737
▁Peter	-2738
▁estab	-2739
▁fresh	-2740
osition	-2741
▁reigned	-2742
▁rejoice	-2743
▁attention	-2744
arth	-2745
raim	-2746
▁try	-2747
alter	-2748
inger	-2749
▁inqu	-2750
▁false	-2751
▁swift	-2752
claimed	-2753
▁Archer	-2754
▁proceed	-2755
▁vessels	-2756
▁41	-2757
aled	-2758
aped	-2759
ires	-2760
oman	-2761
▁Far	-2762
▁crown	-2763
ference	-2764
▁beauty	-2765
▁pieces	-2766
▁speech	-2767
rs	-2768
val	-2769
ists	-2770
▁cre	-2771
▁sever	-2772
▁sharp	-2773
▁teach	-2774
OU	-2775
nt	-2776
ges	-2777
oam	-2778
ulf	-2779
▁scri	-2780
▁situ	-2781
▁fields	-2782
▁fright	-2783
▁ladies	-2784
▁consequ	-2785
▁prepared	-2786
▁destroyed	-2787
cip	-2788
▁vs	-2789
fast	-2790
ekiah	-2791
ierce	-2792
ision	-2793
meric	-2794
▁pill	-2795
▁fixed	-2796
▁looks	-2797
▁Little	-2798
▁abomin	-2799
▁honest	-2800
▁import	-2801
▁nation	-2802
▁further	-2803
▁conversation	-2804
:38	-2805
host	-2806
iest	-2807
▁win	-2808
▁Benj	-2809
▁Your	-2810
▁bott	-2811
▁grew	-2812
▁neck	-2813
▁roll	-2814
▁plant	-2815
▁usual	-2816
▁engage	-2817
▁minute	-2818
▁clothes	-2819
▁carriage	-2820
▁throughout	-2821
aal	-2822
▁ox	-2823
▁Som	-2824
ancing	-2825
▁gates	-2826
▁cattle	-2827
▁elders	-2828
▁spring	-2829
ils	-2830
erve	-2831
ploy	-2832
essor	-2833
▁soci	-2834
▁instead	-2835
▁running	-2836
▁creature	-2837
vi	-2838
rous	-2839
▁que	-2840
osity	-2841
▁camp	-2842
▁weak	-2843
▁alive	-2844
▁knows	-2845
▁entirely	-2846
▁commandment	-2847
We	-2848
ton	-2849
hood	-2850
▁Dan	-2851
▁Hor	-2852
▁ram	-2853
▁sad	-2854
▁sel	-2855
ushed	-2856
▁Midd	-2857
▁beha	-2858
▁cand	-2859
▁goes	-2860
▁bones	-2861
▁moved	-2862
▁naked	-2863
▁chance	-2864
▁nobody	-2865
▁prison	-2866
▁Ephraim	-2867
▁farther	-2868
▁kindness	-2869
uce	-2870
▁dam	-2871
▁deg	-2872
▁hot	-2873
▁lim	-2874
▁mem	-2875
areth	-2876
ivity	-2877
▁seas	-2878
arbuck	-2879
▁Smith	-2880
▁start	-2881
▁Americ	-2882
▁golden	-2883
▁shadow	-2884
▁tender	-2885
▁wished	-2886
▁extreme	-2887
▁Starbuck	-2888
▁Gi	-2889
akes	-2890
▁Sat	-2891
▁kne	-2892
▁wide	-2893
▁pride	-2894
▁troub	-2895
▁imposs	-2896
▁raised	-2897
▁remained	-2898
yr	-2899
eds	-2900
▁Pl	-2901
iter	-2902
▁Had	-2903
iding	-2904
▁anim	-2905
▁path	-2906
▁reve	-2907
▁lands	-2908
ruction	-2909
▁Canaan	-2910
▁public	-2911
▁rising	-2912
▁confess	-2913
▁whatever	-2914
eb	-2915
my	-2916
jah	-2917
ecil	-2918
rees	-2919
▁ago	-2920
ipped	-2921
▁coll	-2922
▁doct	-2923
▁hide	-2924
▁mour	-2925
▁dress	-2926
▁chosen	-2927
▁recollect	-2928
had	-2929
ilk	-2930
isco	-2931
mend	-2932
▁rod	-2933
athen	-2934
▁Talb	-2935
ternal	-2936
▁burst	-2937
▁ships	-2938
▁attend	-2939
▁temper	-2940
▁curious	-2941
▁heavens	-2942
▁several	-2943
▁appearance	-2944
ta	-2945
ades	-2946
resp	-2947
▁Con	-2948
▁fit	-2949
bbath	-2950
ining	-2951
▁dust	-2952
▁sins	-2953
▁angry	-2954
▁delic	-2955
▁advant	-2956
▁breast	-2957
▁height	-2958
▁street	-2959
▁heathen	-2960
▁sabbath	-2961
ny	-2962
acy	-2963
ror	-2964
light	-2965
▁Musg	-2966
▁ball	-2967
▁tears	-2968
▁church	-2969
▁hearing	-2970
▁measure	-2971
▁stopped	-2972
▁worship	-2973
haz	-2974
▁Me	-2975
born	-2976
▁Com	-2977
▁Isa	-2978
antly	-2979
eping	-2980
ondon	-2981
▁Prof	-2982
▁fond	-2983
ecilia	-2984
overed	-2985
▁Franc	-2986
▁While	-2987
▁treas	-2988
▁London	-2989
▁dinner	-2990
▁taught	-2991
▁Charles	-2992
▁covered	-2993
▁married	-2994
▁wherein	-2995
▁promised	-2996
lo	-2997
aph	-2998
▁av	-2999
▁Par	-3000
▁voy	-3001
equod	-3002
▁affl	-3003
▁stir	-3004
▁succ	-3005
▁Pequod	-3006
pecially	-3007
▁foolish	-3008
▁distance	-3009
van	-3010
iced	-3011
road	-3012
▁Amm	-3013
▁dim	-3014
aking	-3015
▁crew	-3016
▁firm	-3017
▁obey	-3018
▁priv	-3019
▁tall	-3020
▁conne	-3021
▁makes	-3022
▁tempt	-3023
▁killed	-3024
▁Benjamin	-3025
▁Francisco	-3026
▁excellent	-3027
hah	-3028
▁New	-3029
▁lion	-3030
▁names	-3031
theless	-3032
▁buried	-3033
▁employ	-3034
ize	-3035
pid	-3036
esse	-3037
inct	-3038
▁Don	-3039
▁Ros	-3040
▁wel	-3041
▁Beth	-3042
▁Holy	-3043
▁Jeho	-3044
▁Such	-3045
▁tone	-3046
ourage	-3047
▁Nature	-3048
▁summer	-3049
▁Cecilia	-3050
▁desolate	-3051
▁determined	-3052
).	-3053
▁ann	-3054
▁Hart	-3055
▁empt	-3056
▁Night	-3057
▁event	-3058
▁extra	-3059
▁guess	-3060
▁Brutus	-3061
▁corner	-3062
▁middle	-3063
▁Professor	-3064
af	-3065
:39	-3066
ics	-3067
▁Bl	-3068
teen	-3069
thur	-3070
▁Ant	-3071
▁Hal	-3072
isted	-3073
oboam	-3074
▁Land	-3075
▁beat	-3076
asting	-3077
attered	-3078
▁border	-3079
▁morrow	-3080
▁drawing	-3081
▁greatest	-3082
uly	-3083
ibly	-3084
erved	-3085
▁easy	-3086
▁ones	-3087
▁slay	-3088
▁spot	-3089
▁wand	-3090
▁guine	-3091
▁hills	-3092
▁Arthur	-3093
▁leaves	-3094
▁scarce	-3095
▁simple	-3096
▁earnest	-3097
▁expected	-3098
▁terrible	-3099
▁companions	-3100
phe	-3101
uted	-3102
will	-3103
▁119	-3104
▁Car	-3105
▁See	-3106
▁med	-3107
▁ris	-3108
iving	-3109
▁Zion	-3110
▁rule	-3111
▁stop	-3112
▁thin	-3113
ashion	-3114
▁doors	-3115
▁trump	-3116
▁remark	-3117
▁situation	-3118
oe	-3119
▁39	-3120
angu	-3121
▁dism	-3122
▁scho	-3123
▁didst	-3124
▁commun	-3125
▁merely	-3126
▁shewed	-3127
▁upright	-3128
▁minister	-3129
LE	-3130
▁Bru	-3131
▁ble	-3132
▁uns	-3133
▁plan	-3134
▁Bates	-3135
▁innoc	-3136
▁parts	-3137
▁shape	-3138
▁solem	-3139
▁exclaimed	-3140
▁impossible	-3141
▁possession	-3142
If	-3143
▁44	-3144
▁cou	-3145
▁neg	-3146
▁pen	-3147
▁Assy	-3148
▁didn	-3149
▁snow	-3150
▁Earth	-3151
▁bottom	-3152
▁escape	-3153
▁sisters	-3154
▁directly	-3155
),	-3156
:40	-3157
aff	-3158
nat	-3159
▁Es	-3160
▁Bar	-3161
▁dry	-3162
▁fut	-3163
▁wid	-3164
ality	-3165
iedro	-3166
▁pity	-3167
▁sand	-3168
ically	-3169
▁Jerem	-3170
▁gover	-3171
▁waves	-3172
▁Piedro	-3173
▁thanks	-3174
▁declare	-3175
▁gentlemen	-3176
▁understood	-3177
rum	-3178
unk	-3179
ares	-3180
cket	-3181
uary	-3182
known	-3183
ounds	-3184
▁Have	-3185
▁band	-3186
▁horn	-3187
▁poin	-3188
▁west	-3189
culiar	-3190
▁boats	-3191
▁reach	-3192
▁saved	-3193
▁spoil	-3194
▁wives	-3195
▁assure	-3196
▁descri	-3197
▁intell	-3198
▁solemn	-3199
▁success	-3200
▁whither	-3201
▁peculiar	-3202
▁surprise	-3203
▁appointed	-3204
uke	-3205
ivil	-3206
▁Mic	-3207
▁Rus	-3208
▁buy	-3209
▁cab	-3210
▁cat	-3211
▁ign	-3212
uthor	-3213
▁Just	-3214
▁Bless	-3215
▁appro	-3216
▁glass	-3217
▁fierce	-3218
▁attempt	-3219
▁removed	-3220
▁settled	-3221
▁Middleton	-3222
Do	-3223
rat	-3224
▁Ste	-3225
▁dog	-3226
▁lot	-3227
osing	-3228
ustom	-3229
▁feed	-3230
▁fors	-3231
▁lamb	-3232
morrow	-3233
▁birth	-3234
▁marry	-3235
▁thank	-3236
▁reward	-3237
▁express	-3238
▁manners	-3239
▁superior	-3240
▁curiosity	-3241
▁forgotten	-3242
▁necessary	-3243
AR	-3244
She	-3245
ses	-3246
▁pap	-3247
cknow	-3248
rench	-3249
▁pict	-3250
▁Again	-3251
▁Never	-3252
▁Samuel	-3253
▁joined	-3254
▁handsome	-3255
na	-3256
lin	-3257
vest	-3258
▁Hez	-3259
▁Old	-3260
▁dut	-3261
▁hun	-3262
▁oce	-3263
▁por	-3264
▁unf	-3265
▁unp	-3266
acher	-3267
ardon	-3268
▁Hell	-3269
▁fail	-3270
▁pale	-3271
▁admir	-3272
▁concl	-3273
▁pract	-3274
▁sides	-3275
▁wrote	-3276
▁Walter	-3277
▁descend	-3278
▁thither	-3279
▁salvation	-3280
▁especially	-3281
:41	-3282
aue	-3283
ear	-3284
hal	-3285
▁hy	-3286
aker	-3287
▁Say	-3288
▁odd	-3289
▁hist	-3290
▁infl	-3291
▁aside	-3292
▁subst	-3293
▁assemb	-3294
▁future	-3295
▁redeem	-3296
▁knowing	-3297
▁passage	-3298
▁difference	-3299
▁commandments	-3300
ora	-3301
▁je	-3302
▁pi	-3303
▁Heb	-3304
▁Hen	-3305
▁Jeh	-3306
alous	-3307
arest	-3308
asseh	-3309
▁Good	-3310
▁Joab	-3311
▁bold	-3312
▁fulf	-3313
▁grat	-3314
▁shop	-3315
▁civil	-3316
▁image	-3317
▁beneath	-3318
▁Manasseh	-3319
▁finished	-3320
▁Hartfield	-3321
▁following	-3322
AN	-3323
▁ow	-3324
ases	-3325
cked	-3326
uded	-3327
ilead	-3328
▁Evan	-3329
▁Pres	-3330
▁boys	-3331
▁cher	-3332
▁hero	-3333
▁lower	-3334
▁recom	-3335
▁souls	-3336
▁clouds	-3337
▁disapp	-3338
▁impati	-3339
together	-3340
▁England	-3341
▁prophes	-3342
▁Moreover	-3343
▁faithful	-3344
▁precious	-3345
▁supposed	-3346
rod	-3347
▁bod	-3348
▁fet	-3349
▁Bear	-3350
▁Like	-3351
▁bask	-3352
▁lift	-3353
▁accom	-3354
▁piece	-3355
▁refle	-3356
▁acknow	-3357
▁slowly	-3358
▁meeting	-3359
▁Jeremiah	-3360
▁everybody	-3361
▁whosoever	-3362
ds	-3363
ox	-3364
eng	-3365
ency	-3366
orne	-3367
▁dem	-3368
▁Adam	-3369
▁cott	-3370
▁grey	-3371
▁lies	-3372
itable	-3373
tering	-3374
▁allow	-3375
▁brass	-3376
▁space	-3377
▁storm	-3378
▁yours	-3379
▁bullock	-3380
▁princip	-3381
▁waiting	-3382
▁cheerful	-3383
▁generations	-3384
kind	-3385
perm	-3386
▁Ang	-3387
▁Are	-3388
▁Thr	-3389
▁magn	-3390
▁miss	-3391
ainted	-3392
▁Brand	-3393
▁broke	-3394
▁tribes	-3395
▁vanity	-3396
▁passion	-3397
Mr	-3398
iff	-3399
▁Tr	-3400
mber	-3401
▁mut	-3402
anced	-3403
▁Levi	-3404
idered	-3405
▁Green	-3406
▁selfe	-3407
▁stick	-3408
▁wings	-3409
▁attach	-3410
▁author	-3411
▁degree	-3412
▁prayer	-3413
▁worthy	-3414
▁beloved	-3415
▁companion	-3416
ON	-3417
gar	-3418
hap	-3419
she	-3420
iety	-3421
▁Did	-3422
▁ric	-3423
▁blow	-3424
▁furn	-3425
▁harm	-3426
▁heed	-3427
lished	-3428
▁Satan	-3429
▁langu	-3430
▁lying	-3431
▁yield	-3432
▁choose	-3433
▁equally	-3434
▁persons	-3435
▁prevent	-3436
▁probably	-3437
▁altogether	-3438
IS	-3439
yn	-3440
▁Spe	-3441
ption	-3442
ulous	-3443
▁bank	-3444
▁gall	-3445
▁ring	-3446
▁abund	-3447
▁learn	-3448
▁music	-3449
▁speed	-3450
▁teeth	-3451
▁feared	-3452
▁changed	-3453
▁engaged	-3454
▁greatly	-3455
▁captains	-3456
▁sacrific	-3457
▁somewhat	-3458
▁sanctuary	-3459
ING	-3460
ipp	-3461
oul	-3462
illy	-3463
vill	-3464
▁Was	-3465
▁bid	-3466
▁Baal	-3467
▁Bath	-3468
▁Love	-3469
▁Marg	-3470
▁edge	-3471
▁nose	-3472
▁Isaac	-3473
▁bitter	-3474
▁depend	-3475
▁likely	-3476
▁whence	-3477
▁Russell	-3478
▁conduct	-3479
▁flowers	-3480
▁serious	-3481
▁seventh	-3482
▁remembered	-3483
▁continually	-3484
held	-3485
▁mal	-3486
▁tal	-3487
ortun	-3488
▁hurt	-3489
▁mast	-3490
▁Ammon	-3491
▁guard	-3492
▁higher	-3493
▁nearly	-3494
▁thrown	-3495
▁incense	-3496
▁observe	-3497
▁mistress	-3498
▁numbered	-3499
▁observed	-3500
▁breakfast	-3501
▁captivity	-3502
▁interrupt	-3503
▁particularly	-3504
anqu	-3505
▁Neb	-3506
▁bri	-3507
▁bond	-3508
▁luck	-3509
▁paid	-3510
▁Sperm	-3511
▁bowed	-3512
▁goeth	-3513
▁indif	-3514
▁tremb	-3515
ourable	-3516
▁divine	-3517
▁school	-3518
▁strang	-3519
▁Brandon	-3520
▁passing	-3521
▁profess	-3522
▁utterly	-3523
▁consequence	-3524
:42	-3525
cil	-3526
com	-3527
ode	-3528
ram	-3529
uen	-3530
▁vn	-3531
ghed	-3532
ring	-3533
▁Ser	-3534
▁due	-3535
▁ori	-3536
cient	-3537
pered	-3538
▁Hear	-3539
▁sore	-3540
errars	-3541
▁Samar	-3542
▁board	-3543
▁curse	-3544
▁drive	-3545
▁rapid	-3546
▁spite	-3547
ighbury	-3548
▁labour	-3549
▁prince	-3550
▁fortune	-3551
▁growing	-3552
▁letters	-3553
▁welcome	-3554
▁reproach	-3555
II	-3556
alth	-3557
uing	-3558
▁Ele	-3559
rence	-3560
▁High	-3561
▁army	-3562
▁exam	-3563
▁food	-3564
▁race	-3565
▁star	-3566
▁vpon	-3567
▁below	-3568
▁catch	-3569
▁drawn	-3570
▁hurry	-3571
▁swear	-3572
▁Farmer	-3573
▁single	-3574
▁Ferrars	-3575
▁justice	-3576
▁leaving	-3577
▁weather	-3578
▁statutes	-3579
▁advantage	-3580
▁ourselves	-3581
▁whatsoever	-3582
EN	-3583
erm	-3584
ope	-3585
rel	-3586
▁Lo	-3587
ambe	-3588
imon	-3589
antic	-3590
stand	-3591
▁cous	-3592
▁huge	-3593
▁force	-3594
▁miles	-3595
▁smoke	-3596
▁viney	-3597
▁endure	-3598
▁notice	-3599
▁perish	-3600
▁distant	-3601
▁thunder	-3602
▁unknown	-3603
▁Gentiles	-3604
▁Highbury	-3605
▁Musgrove	-3606
▁distress	-3607
▁laughing	-3608
▁likewise	-3609
▁--	-3610
aiah	-3611
alls	-3612
lied	-3613
▁Yes	-3614
▁bul	-3615
▁pot	-3616
inced	-3617
reated	-3618
▁suffe	-3619
▁fisher	-3620
▁maketh	-3621
▁pardon	-3622
▁weight	-3623
▁eternal	-3624
▁meaning	-3625
▁quickly	-3626
▁society	-3627
▁agreeable	-3628
ems	-3629
▁42	-3630
▁48	-3631
ples	-3632
▁rid	-3633
chief	-3634
urely	-3635
▁susp	-3636
erable	-3637
▁Wheel	-3638
▁White	-3639
▁eaten	-3640
▁lives	-3641
▁named	-3642
▁easily	-3643
▁giveth	-3644
▁yellow	-3645
▁instrum	-3646
▁reached	-3647
▁singing	-3648
▁smiling	-3649
▁village	-3650
▁shoulder	-3651
▁circumstances	-3652
de	-3653
ole	-3654
oue	-3655
This	-3656
bert	-3657
ieth	-3658
oned	-3659
▁lod	-3660
ament	-3661
erick	-3662
ories	-3663
▁Give	-3664
▁cool	-3665
▁enqu	-3666
▁grown	-3667
▁loose	-3668
▁suspic	-3669
▁yester	-3670
▁Assyria	-3671
▁Neither	-3672
▁declared	-3673
bid	-3674
pri	-3675
tis	-3676
▁flo	-3677
▁fow	-3678
▁gro	-3679
▁lin	-3680
there	-3681
▁flee	-3682
▁news	-3683
ambeau	-3684
▁Queen	-3685
▁ocean	-3686
▁revol	-3687
▁tresp	-3688
▁mayest	-3689
▁sinned	-3690
▁trying	-3691
▁calling	-3692
▁getting	-3693
▁imagine	-3694
▁perform	-3695
▁prosper	-3696
▁touched	-3697
▁Hezekiah	-3698
▁marriage	-3699
▁wickedness	-3700
LL	-3701
fl	-3702
cha	-3703
oms	-3704
▁Tw	-3705
ding	-3706
▁Mart	-3707
▁coat	-3708
▁loss	-3709
▁myst	-3710
▁pour	-3711
▁skin	-3712
▁empty	-3713
▁proof	-3714
▁walls	-3715
▁forest	-3716
▁indign	-3717
▁Blessed	-3718
▁wrought	-3719
▁Flambeau	-3720
▁increase	-3721
▁trespass	-3722
▁extremely	-3723
▁judgments	-3724
▁confidence	-3725
▁considered	-3726
ba	-3727
bl	-3728
:--	-3729
set	-3730
▁50	-3731
▁Na	-3732
ator	-3733
isha	-3734
look	-3735
ored	-3736
rows	-3737
▁Abs	-3738
▁box	-3739
▁cook	-3740
▁hell	-3741
▁vict	-3742
▁exper	-3743
▁faint	-3744
▁linen	-3745
▁abroad	-3746
▁burden	-3747
▁repent	-3748
▁suffic	-3749
▁escaped	-3750
▁fashion	-3751
▁suspect	-3752
▁instantly	-3753
▁yesterday	-3754
▁generation	-3755
▁destruction	-3756
ES	-3757
asc	-3758
pet	-3759
uzz	-3760
▁Az	-3761
lass	-3762
race	-3763
▁Fir	-3764
▁cam	-3765
▁nar	-3766
▁tow	-3767
ative	-3768
olute	-3769
▁Grey	-3770
▁Look	-3771
▁cord	-3772
▁mass	-3773
▁sigh	-3774
regory	-3775
▁branc	-3776
▁mater	-3777
▁occur	-3778
▁spent	-3779
▁colour	-3780
▁flying	-3781
▁pocket	-3782
▁stream	-3783
▁Samaria	-3784
▁prevail	-3785
▁somehow	-3786
▁harpoone	-3787
:43	-3788
Now	-3789
iam	-3790
mit	-3791
▁cro	-3792
▁jaw	-3793
acles	-3794
ences	-3795
▁Eliz	-3796
▁diss	-3797
▁gird	-3798
▁kiss	-3799
▁poet	-3800
▁stro	-3801
▁Death	-3802
▁Ghost	-3803
▁flood	-3804
▁haste	-3805
▁paper	-3806
▁shock	-3807
▁formed	-3808
▁govern	-3809
▁island	-3810
▁rebell	-3811
▁vision	-3812
▁Gregory	-3813
▁hearken	-3814
▁increased	-3815
io	-3816
leg	-3817
chan	-3818
rate	-3819
vell	-3820
▁Rem	-3821
▁Yea	-3822
▁gaz	-3823
▁oft	-3824
▁woe	-3825
arent	-3826
inite	-3827
mbers	-3828
▁Sund	-3829
▁duty	-3830
▁sell	-3831
▁vent	-3832
antuck	-3833
formed	-3834
▁ignor	-3835
▁perse	-3836
▁scorn	-3837
▁steps	-3838
▁custom	-3839
▁desert	-3840
▁multip	-3841
▁nearer	-3842
▁report	-3843
▁riches	-3844
▁season	-3845
▁desired	-3846
▁started	-3847
▁branches	-3848
▁otherwise	-3849
So	-3850
For	-3851
ply	-3852
rah	-3853
gthe	-3854
iant	-3855
quis	-3856
▁Del	-3857
▁Jem	-3858
▁May	-3859
ville	-3860
▁mill	-3861
action	-3862
cience	-3863
▁content	-3864
▁communic	-3865
▁scarcely	-3866
▁suffered	-3867
▁engagement	-3868
alt	-3869
ari	-3870
eper	-3871
ilst	-3872
reed	-3873
▁Out	-3874
▁Red	-3875
ighty	-3876
ounce	-3877
▁Bull	-3878
▁disg	-3879
▁hall	-3880
▁main	-3881
▁thro	-3882
▁arise	-3883
lasting	-3884
▁French	-3885
▁ascend	-3886
▁served	-3887
▁voices	-3888
▁winter	-3889
▁Nantuck	-3890
▁laughed	-3891
▁opportun	-3892
▁firstborn	-3893
▁scattered	-3894
▁exceedingly	-3895
▁Rab	-3896
▁tor	-3897
itary	-3898
▁jump	-3899
itions	-3900
▁brown	-3901
▁raise	-3902
▁waste	-3903
▁Gilead	-3904
▁Master	-3905
▁poured	-3906
▁breadth	-3907
▁jealous	-3908
▁quarter	-3909
▁garments	-3910
HAT	-3911
ays	-3912
oot	-3913
▁46	-3914
isto	-3915
▁Sec	-3916
▁mor	-3917
aming	-3918
enced	-3919
▁Burs	-3920
▁lose	-3921
▁prey	-3922
▁pron	-3923
▁wash	-3924
aining	-3925
▁daily	-3926
▁swall	-3927
▁winds	-3928
▁woods	-3929
▁angels	-3930
▁caused	-3931
▁fought	-3932
▁guinea	-3933
▁interp	-3934
▁introd	-3935
▁modern	-3936
▁placed	-3937
▁rivers	-3938
▁decided	-3939
▁divided	-3940
▁portion	-3941
eman	-3942
zzar	-3943
▁ant	-3944
▁hol	-3945
▁key	-3946
ivers	-3947
lemen	-3948
onora	-3949
▁milk	-3950
▁rank	-3951
▁stud	-3952
▁beard	-3953
▁chair	-3954
▁claim	-3955
▁cruel	-3956
▁knock	-3957
▁smite	-3958
▁sperm	-3959
▁Sunday	-3960
▁Talbot	-3961
▁basket	-3962
▁waited	-3963
▁forgive	-3964
▁history	-3965
▁Jonathan	-3966
▁anointed	-3967
▁troubled	-3968
▁violence	-3969
▁wonderful	-3970
Not	-3971
has	-3972
osp	-3973
▁49	-3974
▁fi	-3975
esty	-3976
just	-3977
▁Adm	-3978
▁suc	-3979
ashed	-3980
▁Also	-3981
▁Fred	-3982
▁Jack	-3983
▁note	-3984
▁wear	-3985
▁songs	-3986
▁subur	-3987
▁burned	-3988
▁gentle	-3989
▁motion	-3990
▁circumstance	-3991
:44	-3992
Who	-3993
epe	-3994
upp	-3995
▁OF	-3996
▁Art	-3997
▁ease	-3998
▁exec	-3999
▁mock	-4000
▁nice	-4001
▁virt	-4002
▁Cassi	-4003
▁birds	-4004
▁habit	-4005
▁smell	-4006
▁beheld	-4007
▁steady	-4008
▁supper	-4009
▁chariots	-4010
▁stretched	-4011
▁acquainted	-4012
▁attachment	-4013
▁everlasting	-4014
IT	-4015
▁[	-4016
dra	-4017
ayed	-4018
bell	-4019
ella	-4020
enth	-4021
geon	-4022
iral	-4023
nant	-4024
olog	-4025
rown	-4026
▁Ish	-4027
▁hab	-4028
▁obt	-4029
imony	-4030
▁Only	-4031
▁eleg	-4032
▁sheke	-4033
▁worsh	-4034
▁origin	-4035
▁thrust	-4036
▁anybody	-4037
▁besides	-4038
▁writing	-4039
▁approach	-4040
▁committed	-4041
▁conscious	-4042
▁substance	-4043
▁wherefore	-4044
▁comfortable	-4045
;)	-4046
asm	-4047
alom	-4048
azar	-4049
iven	-4050
lech	-4051
▁Joe	-4052
▁Mal	-4053
▁err	-4054
abeth	-4055
ribut	-4056
▁Edom	-4057
▁drag	-4058
▁gosp	-4059
orough	-4060
▁polic	-4061
▁saints	-4062
▁Absalom	-4063
▁Leonora	-4064
▁Through	-4065
▁collect	-4066
▁knowest	-4067
▁knoweth	-4068
▁extraord	-4069
▁Egyptians	-4070
▁Frederick	-4071
fer	-4072
rid	-4073
ulty	-4074
▁Hon	-4075
▁arg	-4076
▁iss	-4077
▁vex	-4078
osite	-4079
▁bapt	-4080
▁fury	-4081
▁salt	-4082
▁shot	-4083
mighty	-4084
▁cease	-4085
▁flour	-4086
▁hoped	-4087
▁threw	-4088
▁truly	-4089
▁libert	-4090
▁plague	-4091
▁police	-4092
▁voyage	-4093
▁burning	-4094
▁putting	-4095
▁suburbs	-4096
▁whaling	-4097
▁transgress	-4098
▁Nevertheless	-4099
min	-4100
▁43	-4101
They	-4102
enge	-4103
vere	-4104
▁mir	-4105
asons	-4106
orous	-4107
rance	-4108
riend	-4109
▁Phar	-4110
▁amaz	-4111
▁cred	-4112
▁fold	-4113
▁mild	-4114
▁oxen	-4115
▁swim	-4116
▁weap	-4117
ounced	-4118
▁borne	-4119
▁frequ	-4120
▁heere	-4121
▁match	-4122
▁prove	-4123
▁signs	-4124
▁Before	-4125
▁States	-4126
▁flower	-4127
▁gospel	-4128
▁happen	-4129
▁refuse	-4130
▁utmost	-4131
▁accompl	-4132
▁ancient	-4133
▁cottage	-4134
▁succeed	-4135
▁goodness	-4136
▁innocent	-4137
▁material	-4138
▁officers	-4139
▁creatures	-4140
▁persuaded	-4141
hor	-4142
▁Ly	-4143
Come	-4144
hath	-4145
vous	-4146
▁cup	-4147
▁gun	-4148
▁net	-4149
▁wax	-4150
nding	-4151
▁Esau	-4152
▁legs	-4153
▁reck	-4154
▁Those	-4155
▁ended	-4156
▁pause	-4157
▁share	-4158
▁spout	-4159
▁fourth	-4160
▁glance	-4161
▁latter	-4162
▁rolled	-4163
▁America	-4164
▁anxious	-4165
▁corrupt	-4166
▁outside	-4167
▁regular	-4168
▁absolute	-4169
▁important	-4170
▁strangers	-4171
▁conscience	-4172
▁opportunity	-4173
▁considerable	-4174
▁satisfaction	-4175
▁er	-4176
cing	-4177
hens	-4178
olly	-4179
rant	-4180
udes	-4181
▁Han	-4182
▁Rob	-4183
▁bew	-4184
▁env	-4185
▁mel	-4186
▁sty	-4187
▁tar	-4188
ested	-4189
▁bent	-4190
▁heat	-4191
ingers	-4192
unning	-4193
▁Jonah	-4194
▁desir	-4195
▁intim	-4196
▁scene	-4197
▁shook	-4198
▁spare	-4199
▁Surely	-4200
▁attent	-4201
▁eating	-4202
▁inform	-4203
▁pulled	-4204
▁savage	-4205
▁dropped	-4206
▁pitched	-4207
▁shepher	-4208
▁telling	-4209
▁Jeroboam	-4210
▁dreadful	-4211
▁favourite	-4212
▁generally	-4213
▁surprised	-4214
ral	-4215
▁Ep	-4216
atic	-4217
long	-4218
reet	-4219
▁cow	-4220
▁nin	-4221
▁vol	-4222
ember	-4223
otion	-4224
pense	-4225
uence	-4226
▁Than	-4227
▁hamm	-4228
▁prot	-4229
ishing	-4230
iverse	-4231
▁alarm	-4232
▁dance	-4233
▁fully	-4234
▁occup	-4235
▁assist	-4236
▁betray	-4237
▁compre	-4238
▁inquir	-4239
▁purple	-4240
▁threes	-4241
▁Pharise	-4242
▁arrived	-4243
▁consumed	-4244
▁forehead	-4245
▁resolved	-4246
▁delighted	-4247
▁perceived	-4248
▁established	-4249
▁extraordinary	-4250
ara	-4251
ban	-4252
▁51	-4253
▁ur	-4254
▁Wor	-4255
▁dil	-4256
unate	-4257
▁nine	-4258
abella	-4259
ration	-4260
▁James	-4261
▁begun	-4262
▁noble	-4263
▁pluck	-4264
▁spect	-4265
▁choice	-4266
▁judged	-4267
▁blessing	-4268
▁separate	-4269
▁compassion	-4270
▁friendship	-4271
irt	-4272
core	-4273
▁1:5	-4274
▁Cro	-4275
▁Nay	-4276
iable	-4277
▁lust	-4278
▁temp	-4279
iments	-4280
inging	-4281
ission	-4282
ushing	-4283
▁Jehoi	-4284
▁craft	-4285
▁hopes	-4286
▁queer	-4287
▁shake	-4288
▁solid	-4289
▁Hamlet	-4290
▁abrupt	-4291
▁cherub	-4292
▁driven	-4293
▁office	-4294
▁proved	-4295
▁smiled	-4296
▁Admiral	-4297
▁allowed	-4298
▁liberty	-4299
▁opening	-4300
▁windows	-4301
▁watching	-4302
▁convinced	-4303
▁difficult	-4304
▁thousands	-4305
▁completely	-4306
▁X	-4307
ald	-4308
eav	-4309
iny	-4310
isc	-4311
▁45	-4312
happ	-4313
▁Ile	-4314
▁Pal	-4315
▁ced	-4316
▁mat	-4317
verse	-4318
▁bell	-4319
▁mate	-4320
▁oath	-4321
▁honey	-4322
ibility	-4323
▁liveth	-4324
▁regret	-4325
▁secure	-4326
▁square	-4327
▁wealth	-4328
▁carpent	-4329
▁mistake	-4330
▁remembr	-4331
▁various	-4332
▁willing	-4333
▁Isabella	-4334
▁patience	-4335
▁sensible	-4336
▁recommend	-4337
▁affliction	-4338
ala	-4339
vey	-4340
▁vp	-4341
hand	-4342
▁Gibe	-4343
▁chap	-4344
▁heap	-4345
▁hole	-4346
▁wept	-4347
▁Flask	-4348
▁Great	-4349
▁stern	-4350
▁twice	-4351
▁weary	-4352
▁weeks	-4353
▁widow	-4354
retched	-4355
▁finger	-4356
▁falling	-4357
▁prepare	-4358
▁mistaken	-4359
▁opposite	-4360
▁villages	-4361
▁wherewith	-4362
rer	-4363
uit	-4364
Then	-4365
▁1:4	-4366
▁Law	-4367
▁arr	-4368
▁dig	-4369
▁fun	-4370
▁pat	-4371
orney	-4372
umber	-4373
▁Bart	-4374
▁Till	-4375
▁bill	-4376
▁curt	-4377
▁prec	-4378
engers	-4379
▁fault	-4380
▁folly	-4381
▁idols	-4382
▁liked	-4383
▁upper	-4384
▁worst	-4385
▁wound	-4386
▁endeav	-4387
▁mortal	-4388
▁speake	-4389
▁strike	-4390
▁pillars	-4391
▁thorough	-4392
▁Elizabeth	-4393
▁fulfilled	-4394
▁mentioned	-4395
▁testimony	-4396
ee	-4397
rop	-4398
ums	-4399
elah	-4400
mble	-4401
sing	-4402
xion	-4403
▁Eve	-4404
▁avo	-4405
▁hed	-4406
forth	-4407
▁amid	-4408
▁palm	-4409
▁sugg	-4410
▁becom	-4411
▁goats	-4412
▁slept	-4413
▁tents	-4414
▁tower	-4415
▁Mother	-4416
▁compar	-4417
▁condem	-4418
▁demand	-4419
▁devour	-4420
▁moving	-4421
▁unless	-4422
▁wholly	-4423
▁learned	-4424
▁support	-4425
▁contempt	-4426
▁infinite	-4427
▁soldiers	-4428
▁Nantucket	-4429
▁dangerous	-4430
▁returning	-4431
▁shoulders	-4432
▁difficulty	-4433
▁frightened	-4434
▁threescore	-4435
ns	-4436
bar	-4437
yal	-4438
zer	-4439
lord	-4440
▁eff	-4441
▁defe	-4442
▁pick	-4443
itated	-4444
▁Stand	-4445
▁apart	-4446
▁exert	-4447
▁lines	-4448
▁press	-4449
▁reply	-4450
▁value	-4451
idering	-4452
▁bought	-4453
▁during	-4454
▁flocks	-4455
▁terror	-4456
▁whilst	-4457
▁Cassius	-4458
▁dancing	-4459
▁eagerly	-4460
▁moments	-4461
▁remnant	-4462
▁Almighty	-4463
▁immortal	-4464
▁confusion	-4465
▁influence	-4466
▁strengthe	-4467
ogy	-4468
rog	-4469
son	-4470
plic	-4471
▁Gal	-4472
▁fem	-4473
ourse	-4474
rents	-4475
▁Macd	-4476
▁bows	-4477
▁murm	-4478
▁whir	-4479
though	-4480
▁Chald	-4481
▁abide	-4482
▁brain	-4483
▁deeds	-4484
▁flame	-4485
▁manif	-4486
▁relig	-4487
▁risen	-4488
▁style	-4489
▁deceit	-4490
▁double	-4491
▁forced	-4492
▁lament	-4493
▁strugg	-4494
▁thinks	-4495
▁courage	-4496
▁finding	-4497
▁hurried	-4498
▁pointed	-4499
▁possibly	-4500
▁authority	-4501
▁indignation	-4502
Ah	-4503
To	-4504
ams	-4505
irm	-4506
yre	-4507
hael	-4508
uben	-4509
▁Gad	-4510
▁Ram	-4511
▁bal	-4512
ading	-4513
oking	-4514
▁leap	-4515
▁mort	-4516
▁rent	-4517
▁sink	-4518
▁tend	-4519
▁wast	-4520
▁womb	-4521
▁Perry	-4522
▁grate	-4523
▁Reuben	-4524
▁afford	-4525
▁famine	-4526
▁scream	-4527
▁chamber	-4528
▁created	-4529
▁whisper	-4530
▁bringing	-4531
▁stronger	-4532
▁remembrance	-4533
00	-4534
non	-4535
rem	-4536
hend	-4537
osop	-4538
▁Acc	-4539
▁doe	-4540
▁pop	-4541
aries	-4542
imney	-4543
using	-4544
viour	-4545
▁Fore	-4546
▁gift	-4547
▁murd	-4548
▁roof	-4549
▁weep	-4550
▁Jehos	-4551
▁imper	-4552
▁knees	-4553
▁liken	-4554
▁repro	-4555
▁rocks	-4556
▁ruler	-4557
▁shade	-4558
▁straw	-4559
▁takes	-4560
▁tired	-4561
▁Fisher	-4562
▁bodies	-4563
▁listen	-4564
▁preach	-4565
▁safely	-4566
▁showed	-4567
▁clothed	-4568
▁conceal	-4569
▁fingers	-4570
▁highest	-4571
▁picture	-4572
▁quietly	-4573
▁heavenly	-4574
▁behaviour	-4575
▁questions	-4576
▁astonishment	-4577
In	-4578
ND	-4579
tw	-4580
haw	-4581
ina	-4582
oft	-4583
oso	-4584
ails	-4585
ancy	-4586
appe	-4587
lady	-4588
seen	-4589
▁Bel	-4590
▁Cam	-4591
▁Woe	-4592
▁amb	-4593
▁bos	-4594
▁tur	-4595
ompan	-4596
uchad	-4597
▁Amor	-4598
▁Tell	-4599
▁aton	-4600
▁drop	-4601
▁harp	-4602
▁root	-4603
▁wing	-4604
▁Would	-4605
▁girls	-4606
▁gloom	-4607
▁grant	-4608
▁horns	-4609
▁uncom	-4610
▁Daniel	-4611
▁Philip	-4612
▁Robert	-4613
▁affair	-4614
▁anarch	-4615
▁armies	-4616
▁highly	-4617
▁palace	-4618
▁sooner	-4619
▁matters	-4620
▁Nebuchad	-4621
▁intellig	-4622
▁mischief	-4623
▁Pharisees	-4624
▁President	-4625
▁interrupted	-4626
:46	-4627
bel	-4628
cer	-4629
col	-4630
inn	-4631
▁"'	-4632
▁Sw	-4633
Very	-4634
ifts	-4635
wick	-4636
▁Tur	-4637
oping	-4638
▁acts	-4639
▁aunt	-4640
▁ends	-4641
▁obed	-4642
▁prud	-4643
▁toss	-4644
haphat	-4645
▁appre	-4646
▁armed	-4647
▁exist	-4648
▁fount	-4649
▁spear	-4650
▁tenth	-4651
▁Barton	-4652
▁Chalde	-4653
▁devils	-4654
▁persec	-4655
▁Nothing	-4656
▁chariot	-4657
▁holding	-4658
▁plainly	-4659
▁reading	-4660
▁trumpet	-4661
▁accident	-4662
▁glorious	-4663
▁perceive	-4664
▁touching	-4665
:45	-4666
hon	-4667
que	-4668
▁47	-4669
▁Gu	-4670
▁ep	-4671
ingu	-4672
phan	-4673
umph	-4674
▁Men	-4675
▁bag	-4676
▁fra	-4677
▁gay	-4678
▁smo	-4679
ckets	-4680
▁Barb	-4681
▁Gods	-4682
▁Rand	-4683
▁bind	-4684
▁caut	-4685
▁clim	-4686
▁cost	-4687
▁dart	-4688
▁deny	-4689
▁gain	-4690
▁surf	-4691
keeper	-4692
leness	-4693
▁Count	-4694
▁Croft	-4695
▁Speak	-4696
▁books	-4697
▁brook	-4698
▁cabin	-4699
▁drunk	-4700
▁floor	-4701
▁hated	-4702
▁lambs	-4703
▁polit	-4704
ulation	-4705
▁closed	-4706
▁cousin	-4707
▁famous	-4708
▁healed	-4709
▁perpet	-4710
▁remove	-4711
▁shield	-4712
▁However	-4713
▁univers	-4714
▁wanting	-4715
▁contrary	-4716
▁prophesy	-4717
▁atonement	-4718
▁establish	-4719
▁gratitude	-4720
▁astonished	-4721
▁interesting	-4722
lest	-4723
▁Dam	-4724
▁Two	-4725
▁hes	-4726
▁row	-4727
amond	-4728
▁Ahaz	-4729
▁Mess	-4730
▁Rose	-4731
▁papa	-4732
▁rage	-4733
▁aware	-4734
▁doeth	-4735
▁swell	-4736
ability	-4737
▁doctor	-4738
▁stands	-4739
▁swords	-4740
▁unhapp	-4741
▁chimney	-4742
▁garment	-4743
▁harpoon	-4744
▁process	-4745
▁pursued	-4746
▁refused	-4747
▁spoiled	-4748
▁violent	-4749
▁whereof	-4750
▁working	-4751
▁Randalls	-4752
▁actually	-4753
▁friendly	-4754
▁ordinary	-4755
▁admiration	-4756
▁considering	-4757
do	-4758
▁i	-4759
een	-4760
hys	-4761
pse	-4762
▁oh	-4763
aret	-4764
cies	-4765
maid	-4766
more	-4767
▁Bes	-4768
▁Pol	-4769
▁Ver	-4770
▁deb	-4771
▁ple	-4772
which	-4773
▁Upon	-4774
▁comb	-4775
▁phil	-4776
▁rate	-4777
itudes	-4778
▁Mouse	-4779
▁South	-4780
▁apost	-4781
▁gives	-4782
▁infer	-4783
▁royal	-4784
▁spend	-4785
▁toler	-4786
imelech	-4787
▁Martin	-4788
▁fruits	-4789
▁invent	-4790
▁record	-4791
▁stairs	-4792
▁strict	-4793
▁unfort	-4794
▁upward	-4795
▁amongst	-4796
▁shouted	-4797
▁apparent	-4798
▁smallest	-4799
▁treasure	-4800
▁vineyard	-4801
▁continual	-4802
▁presently	-4803
▁delightful	-4804
▁Jehoshaphat	-4805
AS	-4806
OO	-4807
isp	-4808
nag	-4809
pir	-4810
▁Po	-4811
anch	-4812
ardy	-4813
arks	-4814
heme	-4815
ivid	-4816
▁2:5	-4817
▁Cor	-4818
▁Mer	-4819
▁YOU	-4820
▁dew	-4821
▁pul	-4822
▁wed	-4823
enger	-4824
ildad	-4825
▁Dick	-4826
▁Long	-4827
▁THAT	-4828
▁flat	-4829
▁flew	-4830
▁loue	-4831
▁melt	-4832
acious	-4833
▁invol	-4834
▁venge	-4835
▁Friend	-4836
▁Hebron	-4837
▁clever	-4838
▁desper	-4839
▁forbid	-4840
▁inside	-4841
▁narrow	-4842
▁rulers	-4843
▁search	-4844
▁sounds	-4845
▁virgin	-4846
▁wishes	-4847
▁William	-4848
▁address	-4849
▁building	-4850
▁carrying	-4851
▁dwelling	-4852
▁direction	-4853
▁slaughter	-4854
▁trembling	-4855
▁resolution	-4856
▁sacrifices	-4857
agg	-4858
amb	-4859
awn	-4860
bly	-4861
hum	-4862
iod	-4863
oby	-4864
eunt	-4865
oles	-4866
▁ben	-4867
▁kid	-4868
▁saf	-4869
iform	-4870
place	-4871
ursed	-4872
▁Camp	-4873
▁Gree	-4874
▁Syri	-4875
▁game	-4876
ashing	-4877
▁First	-4878
▁Simon	-4879
▁Whoso	-4880
▁awake	-4881
▁domin	-4882
▁fiery	-4883
▁gifts	-4884
▁mourn	-4885
▁throw	-4886
▁train	-4887
▁turns	-4888
▁Street	-4889
▁images	-4890
▁simply	-4891
▁virtue	-4892
▁private	-4893
▁serpent	-4894
▁shining	-4895
▁stretch	-4896
▁wonders	-4897
▁breaking	-4898
▁continue	-4899
▁occurred	-4900
▁philosop	-4901
▁produced	-4902
▁rejoiced	-4903
▁wretched	-4904
▁abundance	-4905
▁expression	-4906
Is	-4907
dy	-4908
ilty	-4909
ract	-4910
they	-4911
▁Upp	-4912
▁maj	-4913
▁shr	-4914
▁tit	-4915
ernal	-4916
ishes	-4917
▁Rory	-4918
▁brow	-4919
▁comr	-4920
▁educ	-4921
▁inde	-4922
▁pool	-4923
▁shri	-4924
ferent	-4925
▁amuse	-4926
▁ashes	-4927
▁fetch	-4928
▁poems	-4929
▁shill	-4930
▁simil	-4931
▁solic	-4932
▁whore	-4933
looking	-4934
▁Bildad	-4935
▁Elijah	-4936
▁ceased	-4937
▁commit	-4938
▁cursed	-4939
▁misery	-4940
▁period	-4941
▁thirst	-4942
▁harvest	-4943
▁entering	-4944
▁laughter	-4945
▁carpenter	-4946
AT	-4947
RE	-4948
gs	-4949
ded	-4950
eph	-4951
ips	-4952
▁Ge	-4953
fold	-4954
hire	-4955
jour	-4956
▁bef	-4957
▁ner	-4958
▁tea	-4959
----"	-4960
adise	-4961
alled	-4962
alted	-4963
cised	-4964
▁Amen	-4965
▁Pers	-4966
▁Rome	-4967
▁aven	-4968
▁dign	-4969
▁flow	-4970
▁idle	-4971
▁laws	-4972
▁unre	-4973
▁Peleg	-4974
▁abode	-4975
▁blasp	-4976
▁chase	-4977
▁enorm	-4978
▁monst	-4979
▁stuff	-4980
▁trick	-4981
▁couldn	-4982
▁flight	-4983
▁hidden	-4984
▁intent	-4985
▁prayed	-4986
▁sprang	-4987
▁Michael	-4988
▁flatter	-4989
▁leaning	-4990
▁staring	-4991
▁Campbell	-4992
▁likeness	-4993
▁midnight	-4994
▁speaketh	-4995
▁universe	-4996
▁household	-4997
ada	-4998
ads	-4999
lor	-5000
new	-5001
ops	-5002
see	-5003
zed	-5004
aine	-5005
ijah	-5006
ital	-5007
leep	-5008
this	-5009
▁1:6	-5010
▁Asa	-5011
▁Ash	-5012
▁Bas	-5013
▁emp	-5014
▁ens	-5015
estic	-5016
▁Cons	-5017
▁Make	-5018
▁penn	-5019
rietta	-5020
▁Among	-5021
▁Roman	-5022
▁Whose	-5023
▁brake	-5024
▁cheek	-5025
▁dilig	-5026
▁heare	-5027
▁holds	-5028
▁terms	-5029
▁wheat	-5030
▁Indian	-5031
▁Palmer	-5032
▁circle	-5033
▁excuse	-5034
▁hungry	-5035
▁murder	-5036
▁settle	-5037
▁taketh	-5038
▁Barbara	-5039
▁Margery	-5040
▁Wheeler	-5041
▁cunning	-5042
▁mankind	-5043
▁setting	-5044
▁despised	-5045
▁disposed	-5046
▁gracious	-5047
▁language	-5048
▁Henrietta	-5049
▁acknowled	-5050
▁neighbours	-5051
▁punishment	-5052
US	-5053
sm	-5054
"--	-5055
:47	-5056
Tis	-5057
acc	-5058
onc	-5059
▁78	-5060
▁od	-5061
cial	-5062
ests	-5063
▁Lab	-5064
▁cop	-5065
▁fil	-5066
▁inj	-5067
▁lat	-5068
itive	-5069
▁Pray	-5070
▁answ	-5071
▁bore	-5072
▁male	-5073
▁pair	-5074
▁rope	-5075
ifying	-5076
mitted	-5077
▁Selah	-5078
▁Syria	-5079
▁chast	-5080
▁indul	-5081
▁pitch	-5082
▁shoot	-5083
▁terri	-5084
ational	-5085
ercross	-5086
servant	-5087
▁design	-5088
▁farmer	-5089
▁hollow	-5090
▁loving	-5091
▁memory	-5092
▁orders	-5093
▁smooth	-5094
▁threat	-5095
▁amiable	-5096
▁charged	-5097
▁exalted	-5098
▁hanging	-5099
▁uniform	-5100
▁visible	-5101
▁Franklin	-5102
▁discover	-5103
▁distinct	-5104
▁distingu	-5105
▁offended	-5106
▁required	-5107
▁revealed	-5108
▁wondrous	-5109
▁spiritual	-5110
▁messengers	-5111
:48	-5112
mas	-5113
tal	-5114
umn	-5115
▁ph	-5116
chem	-5117
ulch	-5118
▁1:7	-5119
▁Mid	-5120
▁Uzz	-5121
▁pos	-5122
▁spl	-5123
aches	-5124
ariah	-5125
ially	-5126
nesse	-5127
▁Down	-5128
▁Know	-5129
▁emer	-5130
▁flag	-5131
▁lamp	-5132
▁oars	-5133
▁wake	-5134
urious	-5135
▁Right	-5136
▁chose	-5137
▁dying	-5138
▁feare	-5139
▁final	-5140
▁steel	-5141
fulness	-5142
▁Loveit	-5143
▁advers	-5144
▁agreed	-5145
▁bloody	-5146
▁dreams	-5147
▁explan	-5148
▁assured	-5149
▁sailors	-5150
▁smitten	-5151
▁talents	-5152
▁Amorites	-5153
▁chambers	-5154
▁enormous	-5155
▁whenever	-5156
▁carefully	-5157
▁exceeding	-5158
▁Uppercross	-5159
▁honourable	-5160
▁worshipped	-5161
AL	-5162
As	-5163
ky	-5164
mn	-5165
lot	-5166
yes	-5167
Your	-5168
eech	-5169
icho	-5170
mper	-5171
orge	-5172
urre	-5173
▁Reh	-5174
▁Sar	-5175
▁Tar	-5176
▁ban	-5177
▁gle	-5178
▁ine	-5179
▁pan	-5180
▁tid	-5181
ancho	-5182
board	-5183
lease	-5184
onder	-5185
uding	-5186
▁Eden	-5187
▁Hath	-5188
▁Thee	-5189
▁busy	-5190
▁dost	-5191
▁excl	-5192
▁shed	-5193
estern	-5194
▁elder	-5195
▁merry	-5196
▁reven	-5197
▁rooms	-5198
ancholy	-5199
aration	-5200
▁Exeunt	-5201
▁Jackal	-5202
▁credit	-5203
▁harden	-5204
▁humble	-5205
▁parted	-5206
▁repres	-5207
▁resist	-5208
▁severe	-5209
▁beseech	-5210
▁precise	-5211
▁sepulch	-5212
▁seventy	-5213
▁triumph	-5214
▁unhappy	-5215
▁assembly	-5216
▁bringeth	-5217
▁charming	-5218
▁somebody	-5219
▁afterward	-5220
▁suffering	-5221
▁invitation	-5222
▁melancholy	-5223
:49	-5224
ele	-5225
ker	-5226
oes	-5227
ogn	-5228
ped	-5229
▁Ke	-5230
beit	-5231
ilee	-5232
riah	-5233
work	-5234
ynch	-5235
▁2:6	-5236
▁Ger	-5237
▁Job	-5238
▁Put	-5239
▁Sin	-5240
▁aut	-5241
▁bee	-5242
▁vig	-5243
acing	-5244
iance	-5245
icles	-5246
▁Kell	-5247
▁hind	-5248
▁mood	-5249
▁pert	-5250
▁poll	-5251
▁rend	-5252
▁sple	-5253
▁yoke	-5254
ending	-5255
ilence	-5256
▁Steel	-5257
▁Under	-5258
▁needs	-5259
▁shoes	-5260
▁sware	-5261
▁thorn	-5262
▁Antony	-5263
▁againe	-5264
▁esteem	-5265
▁helped	-5266
▁safety	-5267
▁sailor	-5268
▁seated	-5269
▁sojour	-5270
▁surpri	-5271
▁thinke	-5272
▁wheels	-5273
▁Perhaps	-5274
▁discern	-5275
▁kindled	-5276
▁planted	-5277
▁trusted	-5278
ification	-5279
▁Harville	-5280
▁attached	-5281
▁careless	-5282
▁dominion	-5283
▁entrance	-5284
▁forsaken	-5285
▁hearkened	-5286
▁necessity	-5287
▁vengeance	-5288
▁impression	-5289
▁profession	-5290
▁disposition	-5291
▁indifferent	-5292
▁abominations	-5293
--'	-5294
Aye	-5295
Did	-5296
key	-5297
mael	-5298
ogue	-5299
pens	-5300
▁Him	-5301
▁Pip	-5302
▁Swe	-5303
▁Zeb	-5304
▁gen	-5305
▁lun	-5306
▁nod	-5307
▁pil	-5308
▁ung	-5309
▁wra	-5310
agger	-5311
gging	-5312
izing	-5313
▁Clay	-5314
▁deed	-5315
▁loft	-5316
▁reap	-5317
▁rude	-5318
▁scru	-5319
▁surr	-5320
atures	-5321
urally	-5322
▁Abbey	-5323
▁blank	-5324
▁bride	-5325
▁conqu	-5326
▁delay	-5327
▁drown	-5328
▁exerc	-5329
▁fears	-5330
▁flung	-5331
▁forms	-5332
▁prize	-5333
▁queen	-5334
▁trial	-5335
ication	-5336
▁Verily	-5337
▁conven	-5338
▁convey	-5339
▁couple	-5340
▁gained	-5341
▁interv	-5342
▁judges	-5343
▁lately	-5344
▁sprink	-5345
▁Ishmael	-5346
▁Macbeth	-5347
▁advance	-5348
▁bearing	-5349
▁captive	-5350
▁defiled	-5351
▁endless	-5352
▁recover	-5353
▁scribes	-5354
▁surface	-5355
▁younger	-5356
▁Kellynch	-5357
▁forgiven	-5358
▁prospect	-5359
▁whalemen	-5360
▁entertain	-5361
▁recovered	-5362
▁foundation	-5363
▁sanctified	-5364
▁&	-5365
bon	-5366
oom	-5367
▁ty	-5368
erer	-5369
gged	-5370
iour	-5371
line	-5372
noon	-5373
othe	-5374
rets	-5375
rine	-5376
ults	-5377
▁Gil	-5378
▁Lib	-5379
▁Mad	-5380
▁aud	-5381
▁ber	-5382
▁une	-5383
▁unw	-5384
ables	-5385
▁1:10	-5386
▁Both	-5387
▁Moby	-5388
▁Mont	-5389
▁Once	-5390
▁bree	-5391
▁coff	-5392
▁dull	-5393
▁hint	-5394
▁wore	-5395
jected	-5396
▁Still	-5397
▁aloft	-5398
▁bosom	-5399
▁grief	-5400
▁loins	-5401
▁madam	-5402
▁synag	-5403
onsense	-5404
▁Bursal	-5405
▁Secret	-5406
▁begged	-5407
▁excess	-5408
▁powers	-5409
▁splend	-5410
▁tables	-5411
▁throat	-5412
lication	-5413
▁Eleazar	-5414
▁Galilee	-5415
▁appoint	-5416
▁despair	-5417
▁explain	-5418
▁playing	-5419
▁request	-5420
▁sending	-5421
▁shekels	-5422
▁weeping	-5423
▁Paradise	-5424
▁pleasing	-5425
▁preached	-5426
▁redeemed	-5427
▁Leviathan	-5428
▁presented	-5429
▁somewhere	-5430
▁confounded	-5431
▁harpooneer	-5432
▁expectation	-5433
▁information	-5434
?)	-5435
CK	-5436
Ex	-5437
aly	-5438
ama	-5439
gan	-5440
lar	-5441
sha	-5442
▁NO	-5443
▁Up	-5444
▁iv	-5445
ione	-5446
teth	-5447
▁3:5	-5448
▁Bro	-5449
▁Haz	-5450
▁Maj	-5451
▁Pil	-5452
▁Zer	-5453
▁lit	-5454
amped	-5455
aning	-5456
asted	-5457
ument	-5458
▁giue	-5459
▁subd	-5460
itteth	-5461
licted	-5462
▁Leban	-5463
▁World	-5464
▁cedar	-5465
▁depth	-5466
▁shine	-5467
▁steep	-5468
▁thief	-5469
▁wheel	-5470
idently	-5471
natural	-5472
▁Bethel	-5473
▁Prince	-5474
▁advice	-5475
▁anyone	-5476
▁asking	-5477
▁decree	-5478
▁guilty	-5479
▁lovers	-5480
▁native	-5481
▁savour	-5482
▁Jericho	-5483
▁Marquis	-5484
▁consent	-5485
▁corners	-5486
▁offence	-5487
▁attorney	-5488
▁constant	-5489
▁intended	-5490
▁mourning	-5491
▁passover	-5492
▁steadily	-5493
▁cherubims	-5494
▁expressed	-5495
▁sufficient	-5496
▁abomination	-5497
con	-5498
ixt	-5499
law	-5500
zen	-5501
▁Fo	-5502
ager	-5503
anks	-5504
icke	-5505
▁1:3	-5506
▁Sea	-5507
▁Tit	-5508
▁der	-5509
▁flu	-5510
▁sow	-5511
armed	-5512
clock	-5513
ottle	-5514
▁Cask	-5515
▁Fear	-5516
▁Heau	-5517
▁Whom	-5518
▁adul	-5519
▁afar	-5520
▁base	-5521
▁mach	-5522
▁soil	-5523
▁tied	-5524
bation	-5525
ilight	-5526
▁Black	-5527
▁Light	-5528
▁North	-5529
▁array	-5530
▁fowls	-5531
▁globe	-5532
▁rough	-5533
▁steam	-5534
▁treat	-5535
berries	-5536
▁eldest	-5537
▁minist	-5538
▁notion	-5539
▁pounds	-5540
▁scheme	-5541
▁verily	-5542
▁Benwick	-5543
▁Spirits	-5544
▁message	-5545
▁parents	-5546
▁pressed	-5547
▁require	-5548
▁American	-5549
▁Lawrence	-5550
▁Remember	-5551
▁belonged	-5552
▁instance	-5553
▁listened	-5554
▁interpret	-5555
▁proceeded	-5556
asy	-5557
▁Gl	-5558
▁Ot	-5559
▁ga	-5560
▁ze	-5561
bers	-5562
edom	-5563
elix	-5564
ouch	-5565
rust	-5566
uses	-5567
when	-5568
▁8:5	-5569
▁AND	-5570
▁Boy	-5571
▁Squ	-5572
▁alt	-5573
▁aye	-5574
▁bab	-5575
▁bun	-5576
▁dom	-5577
▁exh	-5578
achel	-5579
inded	-5580
istle	-5581
oring	-5582
pence	-5583
phant	-5584
▁Case	-5585
▁Doct	-5586
▁Godd	-5587
▁bend	-5588
▁blem	-5589
▁cruc	-5590
▁dish	-5591
▁lack	-5592
▁pack	-5593
▁puzz	-5594
▁seam	-5595
leased	-5596
▁Arise	-5597
▁Noble	-5598
▁inner	-5599
▁ivory	-5600
▁lamps	-5601
▁ordin	-5602
▁sport	-5603
▁staff	-5604
venture	-5605
▁Forest	-5606
▁crying	-5607
▁nights	-5608
▁prefer	-5609
▁washed	-5610
▁Lebanon	-5611
▁Shechem	-5612
▁appears	-5613
▁consume	-5614
▁disappe	-5615
▁finally	-5616
▁oppress	-5617
▁watched	-5618
▁withdra	-5619
▁wounded	-5620
▁accepted	-5621
▁accompan	-5622
▁grateful	-5623
▁overcome	-5624
▁sanctify	-5625
▁silently	-5626
▁solitary	-5627
▁Secretary	-5628
▁impatient	-5629
▁listening	-5630
▁possessed	-5631
▁absolutely	-5632
▁comprehend	-5633
▁discovered	-5634
▁henceforth	-5635
▁acknowledge	-5636
Don	-5637
OOK	-5638
inc	-5639
mod	-5640
spr	-5641
top	-5642
xes	-5643
oted	-5644
phon	-5645
time	-5646
▁1:8	-5647
▁7:5	-5648
▁hyp	-5649
▁ing	-5650
▁rob	-5651
▁tum	-5652
ascus	-5653
bread	-5654
cheth	-5655
istic	-5656
while	-5657
▁1:11	-5658
▁Into	-5659
▁Noah	-5660
▁Over	-5661
▁ages	-5662
▁bone	-5663
▁dise	-5664
▁fare	-5665
▁gest	-5666
▁ming	-5667
▁ours	-5668
▁pest	-5669
▁phys	-5670
▁ruin	-5671
▁unex	-5672
apping	-5673
iation	-5674
riages	-5675
teenth	-5676
velled	-5677
▁Angel	-5678
▁Felix	-5679
▁assur	-5680
▁avoid	-5681
▁bands	-5682
▁belly	-5683
▁crime	-5684
▁dealt	-5685
▁hedge	-5686
▁horiz	-5687
▁lieth	-5688
▁mixed	-5689
▁negle	-5690
▁overl	-5691
▁renew	-5692
▁store	-5693
natured	-5694
▁absent	-5695
▁armour	-5696
▁branch	-5697
▁female	-5698
▁larger	-5699
▁lovely	-5700
▁plenty	-5701
▁purcha	-5702
▁softly	-5703
ertainly	-5704
▁anxiety	-5705
▁improve	-5706
▁outward	-5707
▁reflect	-5708
▁suggest	-5709
▁baptized	-5710
▁horrible	-5711
▁measured	-5712
▁propriet	-5713
▁Chaldeans	-5714
▁countries	-5715
▁intellect	-5716
▁lightning	-5717
▁suspicion	-5718
ae	-5719
iue	-5720
urd	-5721
Here	-5722
ecai	-5723
iece	-5724
oram	-5725
rain	-5726
rass	-5727
riel	-5728
some	-5729
urse	-5730
▁1:1	-5731
▁1:2	-5732
▁2:7	-5733
▁2:8	-5734
▁3:6	-5735
▁4:5	-5736
▁Cal	-5737
▁Eur	-5738
▁Pra	-5739
▁Sun	-5740
▁ice	-5741
▁sac	-5742
igned	-5743
ircum	-5744
ology	-5745
▁Each	-5746
▁Many	-5747
▁Mord	-5748
▁helm	-5749
▁neat	-5750
▁prog	-5751
▁sack	-5752
avened	-5753
iently	-5754
▁Abner	-5755
▁Other	-5756
▁Peace	-5757
▁Price	-5758
▁abhor	-5759
▁alike	-5760
▁awful	-5761
▁beach	-5762
▁canst	-5763
▁corre	-5764
▁downe	-5765
▁elect	-5766
▁fifth	-5767
▁ghost	-5768
▁impro	-5769
▁issue	-5770
▁liber	-5771
▁liter	-5772
▁lords	-5773
▁marin	-5774
▁rings	-5775
▁sworn	-5776
▁thres	-5777
▁Rabbit	-5778
▁admire	-5779
▁arrows	-5780
▁detect	-5781
▁distur	-5782
▁played	-5783
▁profit	-5784
▁stroke	-5785
▁tribut	-5786
▁blemish	-5787
▁counter	-5788
▁crooked	-5789
▁invited	-5790
▁scarlet	-5791
▁travell	-5792
▁Damascus	-5793
▁Mordecai	-5794
▁abruptly	-5795
▁anywhere	-5796
▁delicate	-5797
▁doctrine	-5798
▁employed	-5799
▁moreover	-5800
▁sleeping	-5801
▁twilight	-5802
▁Abimelech	-5803
▁earnestly	-5804
▁enjoyment	-5805
▁justified	-5806
▁instrument	-5807
▁instruments	-5808
▁disappointed	-5809
RO	-5810
ym	-5811
che	-5812
jud	-5813
pro	-5814
anny	-5815
aper	-5816
bing	-5817
▁3:4	-5818
▁Ban	-5819
▁Cat	-5820
▁Dag	-5821
▁Hus	-5822
▁Sop	-5823
▁rum	-5824
▁wre	-5825
aling	-5826
orted	-5827
▁1:12	-5828
▁Lyme	-5829
▁Park	-5830
▁Tash	-5831
▁arch	-5832
▁card	-5833
▁dawn	-5834
▁grim	-5835
▁mile	-5836
▁proc	-5837
▁rang	-5838
▁wave	-5839
racted	-5840
urches	-5841
▁alter	-5842
▁incon	-5843
▁yards	-5844
lestick	-5845
olation	-5846
umbling	-5847
▁Hebrew	-5848
▁action	-5849
▁asleep	-5850
▁gently	-5851
▁grapes	-5852
▁offend	-5853
▁relief	-5854
▁contrad	-5855
▁deserve	-5856
▁dressed	-5857
▁painful	-5858
▁sincere	-5859
▁deceived	-5860
▁drinking	-5861
▁original	-5862
▁treacher	-5863
▁According	-5864
▁assembled	-5865
▁concluded	-5866
▁naturally	-5867
▁receiving	-5868
▁candlestick	-5869
IL	-5870
cr	-5871
irs	-5872
oup	-5873
▁Kn	-5874
▁eu	-5875
amma	-5876
arse	-5877
cast	-5878
enes	-5879
resa	-5880
▁1:9	-5881
▁2:9	-5882
▁Zed	-5883
▁ess	-5884
▁fix	-5885
▁lan	-5886
▁rev	-5887
▁sup	-5888
arily	-5889
cloth	-5890
erous	-5891
▁Cher	-5892
▁Most	-5893
▁Scot	-5894
▁doom	-5895
▁rams	-5896
▁roar	-5897
▁size	-5898
▁suit	-5899
▁torn	-5900
icious	-5901
mother	-5902
rained	-5903
▁Emper	-5904
▁ahead	-5905
▁asses	-5906
▁goods	-5907
▁pains	-5908
▁paths	-5909
▁seeth	-5910
▁stock	-5911
ioneers	-5912
▁Indeed	-5913
▁aspect	-5914
▁chains	-5915
▁contri	-5916
▁divide	-5917
▁handle	-5918
▁lively	-5919
▁marked	-5920
▁pushed	-5921
▁scient	-5922
▁string	-5923
▁Theresa	-5924
▁arrival	-5925
▁colours	-5926
▁fancied	-5927
▁grieved	-5928
▁monster	-5929
▁parties	-5930
▁remains	-5931
▁rolling	-5932
▁sailing	-5933
▁thereon	-5934
▁weapons	-5935
▁announce	-5936
▁dwelleth	-5937
▁hitherto	-5938
▁inferior	-5939
▁property	-5940
▁Christian	-5941
▁concerned	-5942
▁nakedness	-5943
▁treasures	-5944
▁disappoint	-5945
▁importance	-5946
▁thoroughly	-5947
▁explanation	-5948
▁imagination	-5949
▁inclination	-5950
▁affectionate	-5951
▁indifference	-5952
nal	-5953
ocr	-5954
Miss	-5955
bled	-5956
char	-5957
foot	-5958
iger	-5959
imin	-5960
kins	-5961
live	-5962
nois	-5963
oped	-5964
▁2:3	-5965
▁3:7	-5966
▁6:5	-5967
▁Att	-5968
▁Des	-5969
▁Med	-5970
▁Rep	-5971
▁Res	-5972
▁foe	-5973
▁lur	-5974
▁wet	-5975
Where	-5976
after	-5977
apped	-5978
inent	-5979
▁Cham	-5980
▁Cole	-5981
▁Ital	-5982
▁Laer	-5983
▁Life	-5984
▁carc	-5985
▁foul	-5986
▁meek	-5987
▁meth	-5988
▁noon	-5989
▁oper	-5990
▁pant	-5991
▁remo	-5992
▁scra	-5993
▁symp	-5994
isible	-5995
seless	-5996
▁Bring	-5997
▁March	-5998
▁dried	-5999
▁estim	-6000
▁march	-6001
▁minds	-6002
▁overt	-6003
▁swung	-6004
ameless	-6005
mission	-6006
▁Bashan	-6007
▁Elisha	-6008
▁Midian	-6009
▁attack	-6010
▁bottle	-6011
▁bowels	-6012
▁calcul	-6013
▁doings	-6014
▁humour	-6015
▁loveth	-6016
▁mouths	-6017
▁myster	-6018
▁obeyed	-6019
▁preced	-6020
▁Besides	-6021
▁Goddard	-6022
▁arrange	-6023
▁encoura	-6024
▁forsake	-6025
▁ordered	-6026
▁rapidly	-6027
▁reasons	-6028
▁shortly	-6029
▁swiftly	-6030
▁treated	-6031
▁Zedekiah	-6032
▁advanced	-6033
▁churches	-6034
▁endureth	-6035
▁horsemen	-6036
▁independ	-6037
▁powerful	-6038
▁regarded	-6039
▁shepherd	-6040
▁immediate	-6041
▁prevailed	-6042
▁universal	-6043
▁habitation	-6044
▁reasonable	-6045
▁neighbourhood	-6046
ET	-6047
ux	-6048
...	-6049
hip	-6050
ias	-6051
nam	-6052
tic	-6053
▁TH	-6054
aved	-6055
idon	-6056
ldom	-6057
rors	-6058
▁3:1	-6059
▁Ach	-6060
▁Get	-6061
▁Str	-6062
▁Tim	-6063
▁bru	-6064
▁fed	-6065
▁hin	-6066
▁isn	-6067
▁ren	-6068
▁sum	-6069
▁vap	-6070
aniah	-6071
liest	-6072
lling	-6073
overy	-6074
owder	-6075
stone	-6076
▁1:13	-6077
▁1:14	-6078
▁2:12	-6079
▁2:13	-6080
▁3:10	-6081
▁baby	-6082
▁ceas	-6083
▁glim	-6084
▁jack	-6085
▁sole	-6086
▁sunk	-6087
▁unle	-6088
▁Crown	-6089
▁Hardy	-6090
▁bloom	-6091
▁cries	-6092
▁faire	-6093
▁fools	-6094
▁knife	-6095
▁price	-6096
▁silly	-6097
▁wants	-6098
▁Saying	-6099
▁altars	-6100
▁centre	-6101
▁defile	-6102
▁graven	-6103
▁refuge	-6104
▁rejoic	-6105
▁sacred	-6106
▁tailor	-6107
▁transp	-6108
▁unseen	-6109
▁useful	-6110
▁absence	-6111
▁admired	-6112
▁cutting	-6113
▁entreat	-6114
▁example	-6115
▁fearful	-6116
▁leading	-6117
▁mystery	-6118
▁objects	-6119
▁patient	-6120
▁prayers	-6121
▁similar	-6122
▁station	-6123
▁tidings	-6124
▁tribute	-6125
▁brothers	-6126
▁covering	-6127
▁familiar	-6128
▁inclined	-6129
▁measures	-6130
▁obliging	-6131
▁properly	-6132
▁trumpets	-6133
▁agitation	-6134
▁messenger	-6135
▁shouldest	-6136
▁succeeded	-6137
▁pronounced	-6138
▁reflection	-6139
▁respectable	-6140
▁unfortunate	-6141
AM	-6142
Ind	-6143
bre	-6144
mar	-6145
ule	-6146
▁Ap	-6147
▁Ob	-6148
▁du	-6149
Have	-6150
adab	-6151
cent	-6152
idly	-6153
odom	-6154
tego	-6155
wind	-6156
▁2:1	-6157
▁3:9	-6158
▁4:4	-6159
▁6:6	-6160
▁Est	-6161
▁Sal	-6162
▁ded	-6163
leman	-6164
osure	-6165
▁2:10	-6166
▁3:12	-6167
▁Duke	-6168
▁Poor	-6169
▁anch	-6170
▁dumb	-6171
▁grad	-6172
▁owne	-6173
▁puri	-6174
▁ride	-6175
▁tear	-6176
▁Abram	-6177
▁Carlo	-6178
▁Child	-6179
▁aloud	-6180
▁bloss	-6181
▁limbs	-6182
▁roots	-6183
hearted	-6184
plicity	-6185
▁France	-6186
▁Hatter	-6187
▁animal	-6188
▁calmly	-6189
▁deadly	-6190
▁freely	-6191
▁horror	-6192
▁jumped	-6193
▁market	-6194
▁picked	-6195
▁points	-6196
▁resemb	-6197
▁seldom	-6198
▁sunset	-6199
▁supply	-6200
▁warmth	-6201
▁Syrians	-6202
▁afflict	-6203
▁dignity	-6204
▁elegant	-6205
▁hastily	-6206
▁quarrel	-6207
▁restore	-6208
▁scatter	-6209
▁singers	-6210
▁venture	-6211
▁visited	-6212
▁Tashtego	-6213
▁addition	-6214
▁devoured	-6215
▁generous	-6216
▁governor	-6217
▁nonsense	-6218
▁ordained	-6219
▁religion	-6220
▁sentence	-6221
▁afflicted	-6222
▁encourage	-6223
▁miserable	-6224
▁principal	-6225
▁nevertheless	-6226
IC	-6227
Let	-6228
aun	-6229
ena	-6230
was	-6231
▁Ha	-6232
Good	-6233
coat	-6234
neth	-6235
▁2:4	-6236
▁Abi	-6237
▁Duc	-6238
▁Jez	-6239
▁Mes	-6240
▁Tod	-6241
▁fer	-6242
▁rad	-6243
▁sed	-6244
aired	-6245
ereth	-6246
iseth	-6247
uries	-6248
▁14:5	-6249
▁1:15	-6250
▁Bala	-6251
▁Jehu	-6252
▁Pass	-6253
▁Vill	-6254
▁cell	-6255
▁echo	-6256
▁envy	-6257
▁hail	-6258
▁hosp	-6259
▁joys	-6260
▁mead	-6261
▁unus	-6262
ingale	-6263
stairs	-6264
▁Polon	-6265
▁Shime	-6266
▁Somer	-6267
▁blame	-6268
▁bliss	-6269
▁dared	-6270
▁forbe	-6271
▁herds	-6272
▁ideas	-6273
▁level	-6274
▁sails	-6275
▁skull	-6276
▁Turtle	-6277
▁denied	-6278
▁flames	-6279
▁heroes	-6280
▁hypocr	-6281
▁papers	-6282
▁sailed	-6283
▁wouldn	-6284
▁Whether	-6285
▁despise	-6286
▁emotion	-6287
▁gardens	-6288
▁keeping	-6289
▁raiment	-6290
▁science	-6291
▁seeking	-6292
▁stirred	-6293
▁tongues	-6294
▁valiant	-6295
▁Landlady	-6296
▁Rehoboam	-6297
▁apostles	-6298
▁fountain	-6299
▁hundreds	-6300
▁ignorant	-6301
▁jealousy	-6302
▁multiply	-6303
▁obtained	-6304
▁opinions	-6305
▁pointing	-6306
▁preserve	-6307
▁whoredom	-6308
▁evidently	-6309
▁explained	-6310
▁represent	-6311
▁swallowed	-6312
▁wandering	-6313
▁simplicity	-6314
St	-6315
_,	-6316
zy	-6317
aks	-6318
bus	-6319
can	-6320
ium	-6321
▁52	-6322
▁Bo	-6323
acke	-6324
ales	-6325
aver	-6326
ford	-6327
▁3:2	-6328
▁3:8	-6329
▁7:7	-6330
▁bay	-6331
▁nay	-6332
▁pet	-6333
▁ske	-6334
aylor	-6335
cking	-6336
istol	-6337
ulars	-6338
unken	-6339
▁Bell	-6340
▁Hast	-6341
▁Hill	-6342
▁bulk	-6343
▁cock	-6344
▁hers	-6345
▁sear	-6346
▁stol	-6347
▁trif	-6348
▁wasn	-6349
Indeed	-6350
asmuch	-6351
liness	-6352
nezzar	-6353
ryphon	-6354
▁block	-6355
▁drove	-6356
▁guide	-6357
▁ident	-6358
▁olive	-6359
▁parce	-6360
▁peril	-6361
▁smart	-6362
▁stiff	-6363
oulnois	-6364
▁Balaam	-6365
▁Europe	-6366
▁Pilate	-6367
▁Somers	-6368
▁assert	-6369
▁coasts	-6370
▁divers	-6371
▁inward	-6372
▁overth	-6373
▁pillar	-6374
▁prover	-6375
▁punish	-6376
▁theirs	-6377
▁thorns	-6378
▁worked	-6379
standing	-6380
▁builded	-6381
▁dislike	-6382
▁enquire	-6383
▁foreign	-6384
▁individ	-6385
▁madness	-6386
▁mingled	-6387
▁pretend	-6388
▁prudent	-6389
▁resumed	-6390
▁satisfy	-6391
▁staying	-6392
▁tempted	-6393
urrection	-6394
▁Margaret	-6395
▁handmaid	-6396
▁imagined	-6397
▁landlord	-6398
▁manifest	-6399
▁provoked	-6400
▁rational	-6401
▁fortnight	-6402
▁monstrous	-6403
▁strangely	-6404
▁pestilence	-6405
▁observation	-6406
▁straightway	-6407
▁consideration	-6408
▁Nebuchadnezzar	-6409
IM	-6410
ik	-6411
ws	-6412
Per	-6413
don	-6414
omf	-6415
uss	-6416
▁Bu	-6417
gest	-6418
iber	-6419
iend	-6420
itor	-6421
rief	-6422
soci	-6423
▁2:2	-6424
▁9:5	-6425
▁Cle	-6426
▁Miz	-6427
▁Pac	-6428
▁cas	-6429
▁clo	-6430
▁fol	-6431
▁loc	-6432
▁nav	-6433
▁vac	-6434
ators	-6435
lings	-6436
pless	-6437
▁Fort	-6438
▁Time	-6439
▁bars	-6440
▁fame	-6441
▁fowl	-6442
▁herd	-6443
▁impr	-6444
▁nest	-6445
▁obsc	-6446
▁pipe	-6447
▁robb	-6448
▁seal	-6449
▁stup	-6450
ensive	-6451
umbled	-6452
▁Laban	-6453
▁backs	-6454
▁disag	-6455
▁fever	-6456
▁later	-6457
▁leaue	-6458
▁lover	-6459
▁phant	-6460
▁shone	-6461
▁sixth	-6462
▁sugar	-6463
▁sweep	-6464
▁tread	-6465
▁waist	-6466
▁German	-6467
▁Taylor	-6468
▁active	-6469
▁cleans	-6470
▁coffin	-6471
▁estate	-6472
▁kindly	-6473
▁lights	-6474
▁locked	-6475
▁partly	-6476
▁plains	-6477
▁prodig	-6478
▁script	-6479
▁sharks	-6480
▁smiles	-6481
▁Against	-6482
▁Emperor	-6483
▁Gryphon	-6484
▁Tarlton	-6485
▁capable	-6486
▁drunken	-6487
▁gravely	-6488
▁pulling	-6489
▁special	-6490
▁stepped	-6491
▁torment	-6492
▁attended	-6493
▁backward	-6494
▁complain	-6495
▁pictures	-6496
▁provided	-6497
▁restored	-6498
▁troubles	-6499
▁amusement	-6500
▁conceived	-6501
▁education	-6502
▁intervals	-6503
▁obedience	-6504
▁policeman	-6505
▁separated	-6506
▁sepulchre	-6507
▁whispered	-6508
▁Canaanites	-6509
▁desolation	-6510
▁multiplied	-6511
▁scientific	-6512
▁particulars	-6513
▁transgression	-6514
LD	-6515
wl	-6516
ann	-6517
ien	-6518
lee	-6519
▁Ez	-6520
▁ps	-6521
akim	-6522
alry	-6523
aned	-6524
back	-6525
orah	-6526
rian	-6527
▁4:1	-6528
▁4:2	-6529
▁4:3	-6530
▁4:6	-6531
▁4:7	-6532
▁Hur	-6533
▁hit	-6534
ailed	-6535
uable	-6536
ulate	-6537
▁12:5	-6538
▁2:11	-6539
▁2:15	-6540
▁2:16	-6541
▁3:13	-6542
▁Ophe	-6543
▁Play	-6544
▁Unto	-6545
▁blaz	-6546
▁farm	-6547
▁hunt	-6548
▁idol	-6549
▁lone	-6550
▁parl	-6551
▁rail	-6552
▁rust	-6553
▁sour	-6554
▁trav	-6555
headed	-6556
isting	-6557
ortion	-6558
spring	-6559
▁Rosse	-6560
▁benef	-6561
▁embar	-6562
▁giant	-6563
▁maint	-6564
▁mould	-6565
viathan	-6566
willing	-6567
▁Angels	-6568
▁Nathan	-6569
▁Rachel	-6570
▁castle	-6571
▁damsel	-6572
▁deeper	-6573
▁instru	-6574
▁poison	-6575
▁render	-6576
▁sealed	-6577
▁travel	-6578
▁unjust	-6579
▁Brother	-6580
▁Italian	-6581
▁Norland	-6582
▁borders	-6583
▁counted	-6584
▁flaming	-6585
▁noticed	-6586
▁shadows	-6587
▁shaking	-6588
▁wishing	-6589
▁Jehoiada	-6590
▁exercise	-6591
▁features	-6592
▁fighting	-6593
▁kingdoms	-6594
▁persuade	-6595
▁previous	-6596
▁slightly	-6597
▁uncircum	-6598
▁Whosoever	-6599
▁described	-6600
▁desperate	-6601
▁glorified	-6602
▁ignorance	-6603
▁perpetual	-6604
▁conviction	-6605
▁everywhere	-6606
▁frequently	-6607
▁individual	-6608
▁difficulties	-6609
UR	-6610
yl	-6611
lah	-6612
lls	-6613
oon	-6614
rep	-6615
ros	-6616
arts	-6617
augh	-6618
crew	-6619
ifer	-6620
irty	-6621
uish	-6622
▁3:3	-6623
▁6:7	-6624
▁Arm	-6625
▁Nob	-6626
▁Pat	-6627
▁ash	-6628
▁atm	-6629
▁cig	-6630
▁lee	-6631
▁mil	-6632
▁nob	-6633
▁pin	-6634
▁rom	-6635
▁unm	-6636
aliah	-6637
hered	-6638
icken	-6639
ieved	-6640
ighed	-6641
neath	-6642
otten	-6643
▁1:16	-6644
▁2:17	-6645
▁4:10	-6646
▁Hall	-6647
▁Mean	-6648
▁Mock	-6649
▁Soon	-6650
▁Wind	-6651
▁clay	-6652
▁hook	-6653
▁pace	-6654
▁pine	-6655
▁rapt	-6656
▁rush	-6657
icated	-6658
▁Haman	-6659
▁Herod	-6660
▁Joash	-6661
▁Sodom	-6662
▁class	-6663
▁euery	-6664
▁goest	-6665
▁heave	-6666
▁lions	-6667
▁looke	-6668
▁merit	-6669
▁plead	-6670
▁spark	-6671
▁vague	-6672
▁walks	-6673
▁whirl	-6674
▁Bethle	-6675
▁butter	-6676
▁camels	-6677
▁darted	-6678
▁eateth	-6679
▁failed	-6680
▁manage	-6681
▁nought	-6682
▁polite	-6683
▁shaken	-6684
▁strife	-6685
▁Pacific	-6686
▁adulter	-6687
▁animals	-6688
▁driving	-6689
▁nearest	-6690
▁parable	-6691
▁sounded	-6692
▁swallow	-6693
▁Boulnois	-6694
▁Rosamond	-6695
▁affected	-6696
▁besought	-6697
▁eastward	-6698
▁gladness	-6699
▁instinct	-6700
▁position	-6701
▁uncommon	-6702
▁condition	-6703
▁embarrass	-6704
▁leviathan	-6705
▁objection	-6706
▁wondering	-6707
▁iniquities	-6708
▁rebellious	-6709
▁harpooneers	-6710
▁consciousness	-6711
▁transgressions	-6712
CH	-6713
abb	-6714
add	-6715
bow	-6716
swe	-6717
why	-6718
▁89	-6719
▁Ko	-6720
hall	-6721
hank	-6722
took	-6723
▁5:4	-6724
▁5:7	-6725
▁Bab	-6726
▁Col	-6727
▁Day	-6728
▁Gra	-6729
▁sne	-6730
▁vic	-6731
ifted	-6732
imeon	-6733
itate	-6734
lands	-6735
▁11:5	-6736
▁3:16	-6737
▁4:11	-6738
▁Gres	-6739
▁Hitt	-6740
▁Hold	-6741
▁Lest	-6742
▁Sing	-6743
▁blew	-6744
▁cure	-6745
▁leis	-6746
▁sang	-6747
▁syst	-6748
▁trad	-6749
ipping	-6750
pected	-6751
▁Fanny	-6752
▁Since	-6753
▁bough	-6754
▁brave	-6755
▁brief	-6756
▁jolly	-6757
▁passe	-6758
▁porch	-6759
▁shows	-6760
▁snare	-6761
▁tells	-6762
entieth	-6763
ointing	-6764
ounding	-6765
▁Esther	-6766
▁Simeon	-6767
▁autumn	-6768
▁beaten	-6769
▁events	-6770
▁finish	-6771
▁reckon	-6772
▁scribe	-6773
▁wooden	-6774
▁Another	-6775
▁Donwell	-6776
▁Gresham	-6777
▁Howbeit	-6778
▁commend	-6779
▁dearest	-6780
▁excited	-6781
▁gallant	-6782
▁grounds	-6783
▁heareth	-6784
▁inquiry	-6785
▁kindred	-6786
▁partial	-6787
▁produce	-6788
▁sitteth	-6789
▁compared	-6790
▁deserved	-6791
▁merciful	-6792
▁occupied	-6793
▁personal	-6794
▁throwing	-6795
▁Bethlehem	-6796
▁advancing	-6797
▁comforted	-6798
▁eagerness	-6799
▁oppressed	-6800
▁remaining	-6801
▁seriously	-6802
▁unwilling	-6803
▁willingly	-6804
▁witnesses	-6805
▁unleavened	-6806
▁housekeeper	-6807
One	-6808
gal	-6809
gon	-6810
hun	-6811
ids	-6812
off	-6813
omb	-6814
▁IN	-6815
▁Sl	-6816
ieve	-6817
join	-6818
mast	-6819
nded	-6820
phod	-6821
reel	-6822
rers	-6823
tree	-6824
utch	-6825
▁106	-6826
▁4:8	-6827
▁5:8	-6828
▁5:9	-6829
▁Eth	-6830
▁Kir	-6831
▁Net	-6832
▁Oct	-6833
▁WHA	-6834
▁ado	-6835
▁bol	-6836
▁hom	-6837
▁irr	-6838
agues	-6839
anged	-6840
anquo	-6841
ellow	-6842
iries	-6843
iture	-6844
▁2:19	-6845
▁5:12	-6846
▁Cath	-6847
▁Exit	-6848
▁Naph	-6849
▁Were	-6850
▁brig	-6851
▁brut	-6852
▁dine	-6853
▁ener	-6854
▁fain	-6855
▁fate	-6856
▁grin	-6857
▁knee	-6858
▁lake	-6859
▁nour	-6860
▁rows	-6861
▁wars	-6862
kscrew	-6863
▁Jesse	-6864
▁Sophy	-6865
▁beams	-6866
▁chest	-6867
▁coach	-6868
▁deser	-6869
▁doest	-6870
▁ephod	-6871
▁flash	-6872
▁guilt	-6873
▁lucky	-6874
▁memor	-6875
▁poore	-6876
▁posts	-6877
▁stout	-6878
▁views	-6879
▁wroth	-6880
ception	-6881
ilities	-6882
▁Josiah	-6883
▁damned	-6884
▁graves	-6885
▁hammer	-6886
▁paused	-6887
▁propos	-6888
▁reconc	-6889
▁rushed	-6890
▁Jezreel	-6891
▁chiefly	-6892
▁deceive	-6893
▁evident	-6894
▁marvell	-6895
▁officer	-6896
▁painted	-6897
▁parting	-6898
▁seeming	-6899
▁selfish	-6900
▁suspend	-6901
▁sympath	-6902
▁floating	-6903
▁striking	-6904
▁Christmas	-6905
▁answering	-6906
▁apprehens	-6907
▁confident	-6908
▁descended	-6909
▁diligently	-6910
▁spectacles	-6911
▁consolation	-6912
▁recollection	-6913
Of	-6914
uv	-6915
ael	-6916
arn	-6917
fts	-6918
hus	-6919
nah	-6920
sac	-6921
When	-6922
alek	-6923
ends	-6924
lers	-6925
outs	-6926
urst	-6927
▁Ged	-6928
▁Hay	-6929
▁Mur	-6930
▁Por	-6931
▁Tem	-6932
▁bas	-6933
▁fan	-6934
▁log	-6935
▁phr	-6936
▁vow	-6937
ental	-6938
glass	-6939
ieves	-6940
urice	-6941
▁1:17	-6942
▁3:11	-6943
▁5:10	-6944
▁Cape	-6945
▁Mark	-6946
▁Very	-6947
▁bury	-6948
▁cens	-6949
▁cler	-6950
▁euer	-6951
▁forn	-6952
▁goat	-6953
▁obli	-6954
▁rare	-6955
▁sees	-6956
cision	-6957
ighted	-6958
itious	-6959
▁About	-6960
▁Grant	-6961
▁Zebul	-6962
▁ample	-6963
▁calls	-6964
▁chant	-6965
▁cubit	-6966
▁magic	-6967
▁negro	-6968
▁nurse	-6969
▁penny	-6970
▁purif	-6971
▁pursu	-6972
raction	-6973
▁Amalek	-6974
▁Blacky	-6975
▁Gibeon	-6976
▁Steele	-6977
▁associ	-6978
▁joyful	-6979
▁mechan	-6980
▁plough	-6981
▁rebuke	-6982
▁shores	-6983
▁stupid	-6984
▁tumult	-6985
onscious	-6986
▁Maurice	-6987
▁altered	-6988
▁berries	-6989
▁charity	-6990
▁condemn	-6991
▁defence	-6992
▁fishery	-6993
▁forbear	-6994
▁immense	-6995
▁keepeth	-6996
▁praised	-6997
▁prolong	-6998
▁readily	-6999
▁retired	-7000
▁sinners	-7001
▁tempest	-7002
▁argument	-7003
▁domestic	-7004
▁hardened	-7005
▁profound	-7006
▁rejected	-7007
▁reserved	-7008
▁swimming	-7009
▁connected	-7010
▁desirable	-7011
▁discourse	-7012
▁endeavour	-7013
▁precisely	-7014
▁synagogue	-7015
▁twentieth	-7016
▁uncertain	-7017
▁interested	-7018
▁perfection	-7019
▁separation	-7020
▁approbation	-7021
▁accomplished	-7022
▁strengthened	-7023
▁interpretation	-7024
OM	-7025
Wh	-7026
boy	-7027
▁66	-7028
Dear	-7029
Look	-7030
adan	-7031
ault	-7032
fish	-7033
pper	-7034
rise	-7035
vert	-7036
▁4:9	-7037
▁Cut	-7038
▁Dra	-7039
▁Mag	-7040
▁Off	-7041
▁Ret	-7042
▁Tre	-7043
▁Tru	-7044
▁Tyr	-7045
▁tot	-7046
▁tro	-7047
Thank	-7048
elest	-7049
eling	-7050
hanan	-7051
hants	-7052
ittim	-7053
never	-7054
ubber	-7055
▁13:5	-7056
▁15:5	-7057
▁3:14	-7058
▁3:17	-7059
▁4:13	-7060
▁Arch	-7061
▁Cast	-7062
▁Coun	-7063
▁Giue	-7064
▁Wall	-7065
▁batt	-7066
▁brid	-7067
▁buck	-7068
▁deem	-7069
▁dogs	-7070
▁inex	-7071
▁keen	-7072
▁lane	-7073
▁rear	-7074
▁resp	-7075
▁sway	-7076
▁symb	-7077
▁tale	-7078
▁whit	-7079
▁zeal	-7080
▁Place	-7081
▁Shema	-7082
▁boots	-7083
▁cases	-7084
▁enlar	-7085
▁frank	-7086
▁frost	-7087
▁nephe	-7088
▁purse	-7089
▁unacc	-7090
atively	-7091
leasant	-7092
▁apples	-7093
▁borrow	-7094
▁butler	-7095
▁claims	-7096
▁habits	-7097
▁invest	-7098
▁recogn	-7099
▁senses	-7100
▁shapes	-7101
▁staves	-7102
▁tossed	-7103
▁valour	-7104
▁wander	-7105
▁Azariah	-7106
▁alarmed	-7107
▁correct	-7108
▁forever	-7109
▁furious	-7110
▁gesture	-7111
▁guineas	-7112
▁happier	-7113
▁leisure	-7114
▁lighted	-7115
▁mothers	-7116
▁project	-7117
▁pursuit	-7118
▁revenge	-7119
▁soldier	-7120
▁superst	-7121
▁valleys	-7122
▁wedding	-7123
▁whereon	-7124
▁birthday	-7125
▁captives	-7126
▁composed	-7127
▁curtains	-7128
▁doubtful	-7129
▁movement	-7130
▁numerous	-7131
▁restless	-7132
▁shouting	-7133
▁trembled	-7134
▁carriages	-7135
▁delicious	-7136
▁greatness	-7137
▁invisible	-7138
▁sackcloth	-7139
▁vineyards	-7140
▁violently	-7141
▁Philistine	-7142
▁complexion	-7143
▁experience	-7144
▁Nightingale	-7145
▁resurrection	-7146
▁sufficiently	-7147
ID	-7148
On	-7149
▁.	-7150
Are	-7151
TLE	-7152
iop	-7153
nor	-7154
ods	-7155
ris	-7156
rus	-7157
udd	-7158
uls	-7159
▁Ph	-7160
▁SA	-7161
▁Te	-7162
adok	-7163
boat	-7164
chen	-7165
inth	-7166
iram	-7167
lets	-7168
lier	-7169
mand	-7170
oard	-7171
ores	-7172
stru	-7173
tali	-7174
udge	-7175
▁107	-7176
▁5:3	-7177
▁5:5	-7178
▁7:6	-7179
▁8:9	-7180
▁Atl	-7181
▁Lot	-7182
▁Nab	-7183
▁Sav	-7184
▁War	-7185
▁fee	-7186
▁jew	-7187
▁mol	-7188
akers	-7189
inces	-7190
press	-7191
ulted	-7192
▁3:15	-7193
▁4:12	-7194
▁5:11	-7195
▁Book	-7196
▁Happ	-7197
▁Lamb	-7198
▁Wife	-7199
▁bulw	-7200
▁clam	-7201
▁exha	-7202
▁gaze	-7203
▁inev	-7204
▁nois	-7205
▁qual	-7206
▁ridd	-7207
▁task	-7208
▁void	-7209
hariah	-7210
semble	-7211
▁Greek	-7212
▁Rosin	-7213
▁Sammy	-7214
▁Zadok	-7215
▁admit	-7216
▁blows	-7217
▁charm	-7218
▁fatal	-7219
▁lance	-7220
▁loves	-7221
▁organ	-7222
▁outer	-7223
▁penet	-7224
▁pierc	-7225
▁plent	-7226
▁seest	-7227
▁sorts	-7228
▁tight	-7229
▁vexed	-7230
▁wrink	-7231
▁Doctor	-7232
▁Ethiop	-7233
▁Gibeah	-7234
▁Heauen	-7235
▁Praise	-7236
▁Should	-7237
▁Tattle	-7238
▁cleave	-7239
▁concub	-7240
▁fishes	-7241
▁girdle	-7242
▁harlot	-7243
▁incred	-7244
▁indust	-7245
▁kissed	-7246
▁lesson	-7247
▁ponder	-7248
▁quarre	-7249
▁result	-7250
▁roared	-7251
▁strait	-7252
▁timber	-7253
▁triump	-7254
▁united	-7255
▁yonder	-7256
elestial	-7257
▁benevol	-7258
▁consult	-7259
▁crossed	-7260
▁flowing	-7261
▁freedom	-7262
▁musical	-7263
▁provoke	-7264
▁sockets	-7265
▁walketh	-7266
▁comrades	-7267
▁counsell	-7268
▁disagree	-7269
▁elegance	-7270
▁hopeless	-7271
▁inconven	-7272
▁marrying	-7273
▁repaired	-7274
▁wherever	-7275
▁afternoon	-7276
▁believeth	-7277
▁existence	-7278
▁instances	-7279
▁intention	-7280
▁prevented	-7281
▁apparently	-7282
▁compliment	-7283
▁fatherless	-7284
▁introduced	-7285
▁intelligence	-7286
▁supplication	-7287
;"	-7288
Mrs	-7289
oqu	-7290
rab	-7291
▁Ai	-7292
▁ax	-7293
.--"	-7294
ache	-7295
aunt	-7296
edge	-7297
hole	-7298
itch	-7299
kilt	-7300
lebr	-7301
pill	-7302
plex	-7303
wing	-7304
yard	-7305
▁HER	-7306
▁Mon	-7307
▁Tor	-7308
▁apt	-7309
▁dun	-7310
▁fac	-7311
▁hee	-7312
▁kit	-7313
▁mou	-7314
▁obv	-7315
chers	-7316
rious	-7317
woman	-7318
▁2:20	-7319
▁Asia	-7320
▁Brah	-7321
▁Gers	-7322
▁Haue	-7323
▁Made	-7324
▁Musc	-7325
▁appl	-7326
▁brim	-7327
▁chin	-7328
▁deaf	-7329
▁heir	-7330
▁inch	-7331
▁lend	-7332
▁plum	-7333
▁prow	-7334
▁trod	-7335
▁unne	-7336
▁vile	-7337
▁ward	-7338
lessly	-7339
uction	-7340
▁Billy	-7341
▁Could	-7342
▁Jebus	-7343
▁Otter	-7344
▁Sarah	-7345
▁absor	-7346
▁beare	-7347
▁chron	-7348
▁doesn	-7349
▁filth	-7350
▁fires	-7351
▁lofty	-7352
▁mamma	-7353
▁mates	-7354
▁plate	-7355
▁theat	-7356
▁towns	-7357
respond	-7358
▁Samson	-7359
▁absurd	-7360
▁barren	-7361
▁boards	-7362
▁bounds	-7363
▁easier	-7364
▁fenced	-7365
▁haught	-7366
▁mutual	-7367
▁scenes	-7368
▁seized	-7369
▁shriek	-7370
▁stared	-7371
▁stayed	-7372
▁subtle	-7373
▁warmly	-7374
▁weapon	-7375
▁affairs	-7376
▁careful	-7377
▁congrat	-7378
▁cousins	-7379
▁fellows	-7380
▁parlour	-7381
▁proverb	-7382
▁secured	-7383
▁seeketh	-7384
▁sharply	-7385
▁streams	-7386
▁unusual	-7387
▁workmen	-7388
Certainly	-7389
▁Naphtali	-7390
▁betrayed	-7391
▁eighteen	-7392
▁grievous	-7393
▁sounding	-7394
▁startled	-7395
▁struggle	-7396
▁youngest	-7397
▁Something	-7398
▁amazement	-7399
▁collected	-7400
▁furniture	-7401
▁merchants	-7402
▁observing	-7403
▁assistance	-7404
▁attentions	-7405
▁previously	-7406
▁prophesied	-7407
CT	-7408
All	-7409
Can	-7410
ILL	-7411
ugg	-7412
▁1.	-7413
▁MY	-7414
aple	-7415
arsh	-7416
gent	-7417
hess	-7418
mond	-7419
ocks	-7420
onia	-7421
oule	-7422
rily	-7423
sequ	-7424
▁7:8	-7425
▁8:1	-7426
▁8:6	-7427
▁Amb	-7428
▁Dix	-7429
▁Dun	-7430
▁Has	-7431
▁Imm	-7432
▁Ner	-7433
▁dre	-7434
▁haz	-7435
▁jet	-7436
▁mud	-7437
▁tyr	-7438
▁wag	-7439
asing	-7440
astic	-7441
eding	-7442
itors	-7443
otted	-7444
pired	-7445
roves	-7446
ruits	-7447
umble	-7448
uming	-7449
ustle	-7450
works	-7451
▁2:14	-7452
▁2:18	-7453
▁Carm	-7454
▁Mine	-7455
▁Obed	-7456
▁Port	-7457
▁Town	-7458
▁cave	-7459
▁copy	-7460
▁diff	-7461
▁gray	-7462
▁jaws	-7463
▁spin	-7464
▁sust	-7465
▁tiny	-7466
▁tune	-7467
ential	-7468
inking	-7469
ulated	-7470
▁Brook	-7471
▁Grace	-7472
▁Grand	-7473
▁Hence	-7474
▁House	-7475
▁Sinai	-7476
▁agony	-7477
▁apple	-7478
▁bench	-7479
▁covet	-7480
▁creep	-7481
▁feels	-7482
▁haven	-7483
▁moder	-7484
▁moral	-7485
▁needy	-7486
▁stage	-7487
▁study	-7488
inction	-7489
▁Banquo	-7490
▁Cathol	-7491
▁Powers	-7492
▁antiqu	-7493
▁apolog	-7494
▁barley	-7495
▁befall	-7496
▁begins	-7497
▁celebr	-7498
▁corpse	-7499
▁examin	-7500
▁gloves	-7501
▁growth	-7502
▁hallow	-7503
▁integr	-7504
▁lawful	-7505
▁malice	-7506
▁modest	-7507
▁patter	-7508
▁prompt	-7509
▁pursue	-7510
▁symbol	-7511
▁towers	-7512
▁Muscari	-7513
▁Western	-7514
▁anguish	-7515
▁becomes	-7516
▁cleanse	-7517
▁fifteen	-7518
▁kitchen	-7519
▁palaces	-7520
▁plucked	-7521
▁precept	-7522
▁roaring	-7523
▁rushing	-7524
▁slumber	-7525
▁tremble	-7526
▁victory	-7527
▁accursed	-7528
▁catching	-7529
▁cleansed	-7530
▁coloured	-7531
▁crossing	-7532
▁elephant	-7533
▁exertion	-7534
▁infernal	-7535
▁interval	-7536
▁intimacy	-7537
▁valuable	-7538
▁Corkscrew	-7539
▁compassed	-7540
▁composure	-7541
▁gathering	-7542
▁gradually	-7543
▁practical	-7544
▁shepherds	-7545
▁shillings	-7546
▁correspond	-7547
▁procession	-7548
withstanding	-7549
▁description	-7550
▁acknowledged	-7551
▁communication	-7552
▁distinguished	-7553
▁disappointment	-7554
!)	-7555
EL	-7556
NE	-7557
aea	-7558
sey	-7559
▁59	-7560
▁TO	-7561
▁Us	-7562
!"--	-7563
gate	-7564
stri	-7565
umps	-7566
unto	-7567
▁5:1	-7568
▁6:1	-7569
▁App	-7570
▁Bed	-7571
▁Ber	-7572
▁Imp	-7573
▁Set	-7574
▁orb	-7575
▁paw	-7576
▁rig	-7577
▁unl	-7578
acity	-7579
avest	-7580
cture	-7581
heads	-7582
irect	-7583
rated	-7584
rates	-7585
urity	-7586
▁1:20	-7587
▁4:14	-7588
▁4:16	-7589
▁5:13	-7590
▁5:15	-7591
▁6:10	-7592
▁Barn	-7593
▁Half	-7594
▁Jeph	-7595
▁Keep	-7596
▁None	-7597
▁Seir	-7598
▁Shil	-7599
▁bald	-7600
▁chat	-7601
▁flut	-7602
▁kick	-7603
▁leaf	-7604
▁lock	-7605
▁pian	-7606
▁quit	-7607
▁reed	-7608
▁vows	-7609
omfret	-7610
verted	-7611
▁WHALE	-7612
▁boast	-7613
▁envel	-7614
▁exped	-7615
▁group	-7616
▁newsp	-7617
▁scept	-7618
▁sixty	-7619
Perhaps	-7620
ocation	-7621
utation	-7622
▁Kohath	-7623
▁Naples	-7624
▁Shimei	-7625
▁ashore	-7626
▁bodily	-7627
▁candle	-7628
▁contem	-7629
▁defend	-7630
▁dishon	-7631
▁guests	-7632
▁hanged	-7633
▁leaned	-7634
▁loaves	-7635
▁lodged	-7636
▁lonely	-7637
▁longed	-7638
▁parcel	-7639
▁plants	-7640
▁seamen	-7641
▁tranqu	-7642
ittering	-7643
▁Without	-7644
▁beating	-7645
▁behaved	-7646
▁council	-7647
▁doubted	-7648
▁guessed	-7649
▁horizon	-7650
▁lightly	-7651
▁members	-7652
▁nervous	-7653
▁numbers	-7654
▁perplex	-7655
▁profane	-7656
▁puzzled	-7657
▁sixteen	-7658
▁slipped	-7659
▁thereby	-7660
▁Egyptian	-7661
▁bullocks	-7662
▁bulwarks	-7663
▁conceive	-7664
▁convince	-7665
▁creation	-7666
▁creeping	-7667
▁mariners	-7668
▁sickness	-7669
▁singular	-7670
▁splendid	-7671
▁wondered	-7672
ingerbread	-7673
▁assurance	-7674
▁attending	-7675
▁certainty	-7676
▁connexion	-7677
▁crucified	-7678
▁Somerville	-7679
▁comparison	-7680
▁marvellous	-7681
▁mysterious	-7682
▁foundations	-7683
▁probability	-7684
▁unconscious	-7685
:)	-7686
Ch	-7687
.'"	-7688
Nay	-7689
azz	-7690
car	-7691
cle	-7692
ese	-7693
kin	-7694
tan	-7695
▁Co	-7696
▁Si	-7697
▁Ze	-7698
▁cy	-7699
▁tu	-7700
BOOK	-7701
Poor	-7702
heba	-7703
mark	-7704
oser	-7705
pled	-7706
raph	-7707
zing	-7708
▁105	-7709
▁6:8	-7710
▁7:9	-7711
▁8:8	-7712
▁Cin	-7713
▁Hel	-7714
▁Jab	-7715
▁Sil	-7716
▁Zec	-7717
▁cri	-7718
▁egg	-7719
▁lil	-7720
▁oak	-7721
▁ped	-7722
▁unb	-7723
arius	-7724
aziah	-7725
eenth	-7726
ideon	-7727
ifull	-7728
inity	-7729
ulgar	-7730
▁1:18	-7731
▁4:15	-7732
▁5:14	-7733
▁6:11	-7734
▁East	-7735
▁Head	-7736
▁Mach	-7737
▁abst	-7738
▁cann	-7739
▁cart	-7740
▁hire	-7741
▁hull	-7742
▁lawy	-7743
▁toil	-7744
▁worm	-7745
▁yard	-7746
cerity	-7747
giving	-7748
urning	-7749
▁Beers	-7750
▁Maker	-7751
▁State	-7752
▁arrow	-7753
▁aught	-7754
▁brill	-7755
▁brood	-7756
▁chain	-7757
▁clock	-7758
▁cloth	-7759
▁displ	-7760
▁excit	-7761
▁frame	-7762
▁isles	-7763
▁lodge	-7764
▁ninth	-7765
▁sakes	-7766
▁seeds	-7767
▁sober	-7768
▁stole	-7769
▁thigh	-7770
aughing	-7771
osphere	-7772
quisite	-7773
▁Follow	-7774
▁Gideon	-7775
▁Within	-7776
▁anchor	-7777
▁artist	-7778
▁barbar	-7779
▁breeze	-7780
▁doubts	-7781
▁effort	-7782
▁eighth	-7783
▁incess	-7784
▁loosed	-7785
▁needed	-7786
▁perils	-7787
▁sayest	-7788
▁stolen	-7789
▁submit	-7790
▁visits	-7791
aterpill	-7792
▁Caesars	-7793
▁Duchess	-7794
▁Pomfret	-7795
▁Zebulun	-7796
▁bondage	-7797
▁breasts	-7798
▁breathe	-7799
▁candles	-7800
▁caution	-7801
▁cleared	-7802
▁earthly	-7803
▁feather	-7804
▁forming	-7805
▁happens	-7806
▁islands	-7807
▁lantern	-7808
▁leaping	-7809
▁lifting	-7810
▁majesty	-7811
▁passeth	-7812
▁release	-7813
▁showing	-7814
▁sorrows	-7815
▁species	-7816
▁travail	-7817
▁Shemaiah	-7818
▁bursting	-7819
▁confused	-7820
▁decision	-7821
▁dismayed	-7822
▁enquired	-7823
▁heartily	-7824
▁informed	-7825
▁polluted	-7826
▁probable	-7827
▁reaching	-7828
▁rebelled	-7829
▁secretly	-7830
▁stopping	-7831
▁unnecess	-7832
▁wouldest	-7833
▁Musgroves	-7834
▁Zechariah	-7835
▁anarchist	-7836
▁attentive	-7837
▁fishermen	-7838
▁offspring	-7839
▁suspected	-7840
▁unaccount	-7841
▁atmosphere	-7842
▁chronicles	-7843
▁constantly	-7844
▁displeased	-7845
▁impatience	-7846
▁tenderness	-7847
▁unpleasant	-7848
▁disappeared	-7849
▁grandmother	-7850
▁possibility	-7851
▁uncircumcised	-7852
TH	-7853
_.	-7854
azy	-7855
whe	-7856
▁60	-7857
▁Im	-7858
▁Vn	-7859
abor	-7860
anim	-7861
icip	-7862
idel	-7863
inks	-7864
ombe	-7865
uten	-7866
▁5:2	-7867
▁6:4	-7868
▁7:1	-7869
▁7:4	-7870
▁9:9	-7871
▁Act	-7872
▁Any	-7873
▁Cap	-7874
▁Fox	-7875
▁Ill	-7876
▁Jap	-7877
▁Rec	-7878
▁Rom	-7879
▁Tra	-7880
▁awk	-7881
▁gig	-7882
▁lap	-7883
▁lux	-7884
▁tin	-7885
▁wig	-7886
aging	-7887
berry	-7888
ideth	-7889
inate	-7890
inson	-7891
nings	-7892
onday	-7893
oused	-7894
prosy	-7895
score	-7896
smith	-7897
▁10:5	-7898
▁14:6	-7899
▁2:21	-7900
▁3:19	-7901
▁6:12	-7902
▁6:13	-7903
▁8:11	-7904
▁9:13	-7905
▁Farm	-7906
▁Past	-7907
▁Song	-7908
▁Span	-7909
▁Wilt	-7910
▁desc	-7911
▁foam	-7912
▁heel	-7913
▁lads	-7914
▁pole	-7915
▁puff	-7916
▁rebu	-7917
▁robe	-7918
▁sadd	-7919
▁sank	-7920
▁tack	-7921
▁thri	-7922
▁tops	-7923
▁vail	-7924
▁veil	-7925
acheth	-7926
rating	-7927
twenty	-7928
uously	-7929
▁Dixon	-7930
▁Sword	-7931
▁adorn	-7932
▁appet	-7933
▁drift	-7934
▁erect	-7935
▁etern	-7936
▁evils	-7937
▁exalt	-7938
▁grain	-7939
▁notes	-7940
▁plans	-7941
▁quant	-7942
▁ridic	-7943
▁seats	-7944
▁steal	-7945
▁tarry	-7946
ousness	-7947
▁Judaea	-7948
▁Queene	-7949
▁bewild	-7950
▁brings	-7951
▁chased	-7952
▁dissol	-7953
▁encoun	-7954
▁exclam	-7955
▁faults	-7956
▁feeble	-7957
▁flukes	-7958
▁gazing	-7959
▁goodly	-7960
▁hermit	-7961
▁hunger	-7962
▁income	-7963
▁insult	-7964
▁magist	-7965
▁motive	-7966
▁orphan	-7967
▁planks	-7968
▁resent	-7969
▁shekel	-7970
▁stable	-7971
▁thread	-7972
▁thrice	-7973
▁withal	-7974
▁Benaiah	-7975
▁Friends	-7976
▁awkward	-7977
▁blowing	-7978
▁crowded	-7979
▁curtain	-7980
▁figures	-7981
▁forests	-7982
▁humbled	-7983
▁leprosy	-7984
▁mercies	-7985
▁miracle	-7986
▁mounted	-7987
▁smoking	-7988
▁whereas	-7989
▁Atlantic	-7990
▁blasphem	-7991
▁civility	-7992
▁demanded	-7993
▁frequent	-7994
▁fruitful	-7995
▁helpless	-7996
▁himselfe	-7997
▁holiness	-7998
▁humanity	-7999
▁inquired	-8000
▁intimate	-8001
▁progress	-8002
▁toucheth	-8003
▁whaleman	-8004
▁Beersheba	-8005
▁exquisite	-8006
▁inhabited	-8007
▁integrity	-8008
▁performed	-8009
▁rejoicing	-8010
▁accomplish	-8011
▁advantages	-8012
▁employment	-8013
▁motionless	-8014
▁persuasion	-8015
▁prodigious	-8016
▁sacrificed	-8017
▁solicitude	-8018
▁temptation	-8019
▁fornication	-8020
▁preparation	-8021
▁cheerfulness	-8022
▁encouragement	-8023
.,	-8024
IR	-8025
UT	-8026
Sir	-8027
aud	-8028
goo	-8029
gre	-8030
och	-8031
uts	-8032
who	-8033
▁69	-8034
▁Ba	-8035
▁Fe	-8036
▁eB	-8037
▁ug	-8038
Will	-8039
ahaz	-8040
akly	-8041
angs	-8042
bone	-8043
iana	-8044
ooks	-8045
ping	-8046
pter	-8047
quid	-8048
rade	-8049
rial	-8050
then	-8051
vity	-8052
▁104	-8053
▁6:2	-8054
▁6:9	-8055
▁7:2	-8056
▁7:3	-8057
▁9:6	-8058
▁9:7	-8059
▁Ass	-8060
▁Aye	-8061
▁Bal	-8062
▁Dem	-8063
▁Dis	-8064
▁Gab	-8065
▁Gog	-8066
▁Vir	-8067
▁ate	-8068
▁dus	-8069
▁lou	-8070
▁myr	-8071
bbing	-8072
erers	-8073
ertes	-8074
lance	-8075
terer	-8076
thern	-8077
▁10:6	-8078
▁12:3	-8079
▁12:4	-8080
▁1:19	-8081
▁7:10	-8082
▁Adon	-8083
▁Brun	-8084
▁Call	-8085
▁City	-8086
▁Dorm	-8087
▁Ensc	-8088
▁Lion	-8089
▁Matt	-8090
▁Tree	-8091
▁calf	-8092
▁disd	-8093
▁duel	-8094
▁figs	-8095
▁libr	-8096
▁nurs	-8097
▁park	-8098
▁pred	-8099
▁prim	-8100
▁rode	-8101
▁sits	-8102
▁snat	-8103
▁subt	-8104
angled	-8105
elcome	-8106
ground	-8107
hunter	-8108
igator	-8109
isions	-8110
outher	-8111
vering	-8112
▁10:10	-8113
▁10:12	-8114
▁Asaph	-8115
▁Carol	-8116
▁Kings	-8117
▁Mount	-8118
▁Oakly	-8119
▁blade	-8120
▁blush	-8121
▁cliff	-8122
▁crack	-8123
▁disgu	-8124
▁error	-8125
▁fairy	-8126
▁finde	-8127
▁frown	-8128
▁grove	-8129
▁irres	-8130
▁keepe	-8131
▁likes	-8132
▁locks	-8133
▁mirth	-8134
▁shark	-8135
▁swept	-8136
▁waxed	-8137
eremony	-8138
▁Hayter	-8139
▁cheeks	-8140
▁crimin	-8141
▁digged	-8142
▁horrid	-8143
▁molten	-8144
▁mystic	-8145
▁openly	-8146
▁paying	-8147
▁pledge	-8148
▁shroud	-8149
▁social	-8150
▁sprung	-8151
▁statue	-8152
▁system	-8153
▁unable	-8154
▁watery	-8155
▁worlds	-8156
itations	-8157
▁Ahaziah	-8158
▁Country	-8159
▁Laertes	-8160
▁anticip	-8161
▁artific	-8162
▁belongs	-8163
▁compact	-8164
▁confirm	-8165
▁contend	-8166
▁healthy	-8167
▁hunters	-8168
▁induced	-8169
▁knocked	-8170
▁popular	-8171
▁praises	-8172
▁protect	-8173
▁quitted	-8174
▁related	-8175
▁seconds	-8176
▁totally	-8177
▁turneth	-8178
▁uttered	-8179
▁visions	-8180
▁whereby	-8181
▁wrapped	-8182
adventure	-8183
▁Dormouse	-8184
▁Enscombe	-8185
▁Likewise	-8186
▁accommod	-8187
▁bestowed	-8188
▁dropping	-8189
▁fastened	-8190
▁happiest	-8191
▁overlaid	-8192
▁perished	-8193
▁proposed	-8194
▁skeleton	-8195
▁stricken	-8196
▁subjects	-8197
▁sunlight	-8198
▁surprize	-8199
▁westward	-8200
▁Greenland	-8201
▁Steelkilt	-8202
▁fortunate	-8203
▁hereafter	-8204
▁pleasures	-8205
▁propriety	-8206
▁relations	-8207
▁slightest	-8208
▁sorrowful	-8209
▁descending	-8210
▁excitement	-8211
▁oppression	-8212
▁passionate	-8213
▁prosperity	-8214
▁remarkable	-8215
▁impatiently	-8216
▁superiority	-8217
▁unnecessary	-8218
▁intellectual	-8219
iu	-8220
)--	-8221
any	-8222
cst	-8223
ima	-8224
rim	-8225
tta	-8226
▁55	-8227
▁Af	-8228
▁II	-8229
▁Op	-8230
With	-8231
ands	-8232
berg	-8233
elic	-8234
gend	-8235
ippi	-8236
mund	-8237
okes	-8238
only	-8239
uffe	-8240
umes	-8241
ware	-8242
▁5:6	-8243
▁6:3	-8244
▁8:2	-8245
▁Div	-8246
▁Haw	-8247
▁Met	-8248
▁Pur	-8249
▁mix	-8250
▁pip	-8251
▁sex	-8252
▁sym	-8253
anted	-8254
arded	-8255
arers	-8256
faced	-8257
wling	-8258
▁10:1	-8259
▁1:21	-8260
▁3:18	-8261
▁4:18	-8262
▁4:19	-8263
▁5:16	-8264
▁5:17	-8265
▁5:18	-8266
▁6:18	-8267
▁7:14	-8268
▁9:10	-8269
▁9:14	-8270
▁Cont	-8271
▁Hare	-8272
▁Hesh	-8273
▁Inst	-8274
▁Open	-8275
▁Tyre	-8276
▁baff	-8277
▁beds	-8278
▁bush	-8279
▁crit	-8280
▁ecst	-8281
▁forb	-8282
▁pave	-8283
▁plac	-8284
▁plun	-8285
▁ripe	-8286
▁rubb	-8287
▁shru	-8288
▁silk	-8289
▁subs	-8290
asions	-8291
fruits	-8292
master	-8293
orious	-8294
sachar	-8295
▁Asher	-8296
▁Beths	-8297
▁Creat	-8298
▁Ramah	-8299
▁Think	-8300
▁blast	-8301
▁brace	-8302
▁champ	-8303
▁cords	-8304
▁exult	-8305
▁gross	-8306
▁hired	-8307
▁neuer	-8308
▁owner	-8309
▁pilot	-8310
▁seren	-8311
▁sings	-8312
▁skill	-8313
Nothing	-8314
itution	-8315
unately	-8316
▁Daggoo	-8317
▁Edmund	-8318
▁Gilgal	-8319
▁Persia	-8320
▁Wallis	-8321
▁appare	-8322
▁boldly	-8323
▁breach	-8324
▁courts	-8325
▁daring	-8326
▁decent	-8327
▁deeply	-8328
▁enthus	-8329
▁footst	-8330
▁gavest	-8331
▁hatred	-8332
▁keeper	-8333
▁laying	-8334
▁obtain	-8335
▁orchar	-8336
▁salute	-8337
▁sights	-8338
▁signal	-8339
▁spears	-8340
▁tempor	-8341
▁unlike	-8342
▁vulgar	-8343
▁wasted	-8344
▁wounds	-8345
▁Brahmin	-8346
▁Saviour	-8347
▁butcher	-8348
▁conject	-8349
▁crowned	-8350
▁feeding	-8351
▁furnace	-8352
▁granted	-8353
▁machine	-8354
▁masters	-8355
▁million	-8356
▁whoever	-8357
▁Highland	-8358
▁Issachar	-8359
▁admitted	-8360
▁delicacy	-8361
▁directed	-8362
▁distrust	-8363
▁downward	-8364
▁merchant	-8365
▁resolute	-8366
▁shilling	-8367
▁strongly	-8368
▁vanished	-8369
▁anxiously	-8370
▁celestial	-8371
▁discovery	-8372
▁pronounce	-8373
▁sentiment	-8374
▁therewith	-8375
▁tolerable	-8376
▁abominable	-8377
▁abundantly	-8378
▁convenient	-8379
▁politeness	-8380
▁repentance	-8381
▁sentiments	-8382
▁underneath	-8383
▁approaching	-8384
▁circumcised	-8385
▁compliments	-8386
▁occasionally	-8387
Ay	-8388
IV	-8389
Qu	-8390
sa	-8391
uz	-8392
his	-8393
ipe	-8394
nes	-8395
pah	-8396
ran	-8397
ste	-8398
ura	-8399
▁65	-8400
▁68	-8401
▁ME	-8402
▁Ro	-8403
▁Wr	-8404
Take	-8405
Upon	-8406
atio	-8407
bury	-8408
iser	-8409
kers	-8410
shap	-8411
tons	-8412
▁8:4	-8413
▁9:1	-8414
▁9:3	-8415
▁Jed	-8416
▁Mel	-8417
▁NOT	-8418
▁Sto	-8419
▁Tow	-8420
▁awe	-8421
▁bud	-8422
▁lip	-8423
ashes	-8424
gence	-8425
ileth	-8426
scape	-8427
uting	-8428
verty	-8429
▁10:2	-8430
▁10:7	-8431
▁10:8	-8432
▁16:5	-8433
▁22:5	-8434
▁4:20	-8435
▁6:14	-8436
▁7:13	-8437
▁7:15	-8438
▁7:16	-8439
▁8:12	-8440
▁Alas	-8441
▁Does	-8442
▁Fans	-8443
▁Kirj	-8444
▁bath	-8445
▁beam	-8446
▁boot	-8447
▁debt	-8448
▁duly	-8449
▁foes	-8450
▁kins	-8451
▁liue	-8452
▁pail	-8453
▁resc	-8454
▁scor	-8455
▁sown	-8456
▁sung	-8457
▁swam	-8458
astern	-8459
castle	-8460
haired	-8461
isheth	-8462
oubted	-8463
udence	-8464
ulness	-8465
utions	-8466
worthy	-8467
▁10:11	-8468
▁Henry	-8469
▁Judas	-8470
▁Tiger	-8471
▁Zidon	-8472
▁besie	-8473
▁bonds	-8474
▁dirty	-8475
▁gorge	-8476
▁grasp	-8477
▁hints	-8478
▁ingen	-8479
▁males	-8480
▁overp	-8481
▁ranks	-8482
▁sands	-8483
▁slack	-8484
▁slave	-8485
▁stalk	-8486
▁tooth	-8487
▁track	-8488
▁trunk	-8489
▁wreck	-8490
because	-8491
itality	-8492
itating	-8493
▁Libert	-8494
▁Scotch	-8495
▁Virgin	-8496
▁advent	-8497
▁advise	-8498
▁boughs	-8499
▁carved	-8500
▁confir	-8501
▁coward	-8502
▁danced	-8503
▁deemed	-8504
▁dragon	-8505
▁experi	-8506
▁fairly	-8507
▁fitted	-8508
▁fulfil	-8509
▁groves	-8510
▁hiding	-8511
▁method	-8512
▁pigeon	-8513
▁repair	-8514
▁tasted	-8515
inations	-8516
umerable	-8517
▁Amaziah	-8518
▁Chamber	-8519
▁Fanshaw	-8520
▁Gabriel	-8521
▁Heshbon	-8522
▁apology	-8523
▁applied	-8524
▁deliber	-8525
▁disgust	-8526
▁dreamed	-8527
▁effects	-8528
▁enthusi	-8529
▁glimpse	-8530
▁hammock	-8531
▁handful	-8532
▁illness	-8533
▁justify	-8534
▁liberal	-8535
▁lowered	-8536
▁misfort	-8537
▁neglect	-8538
▁poverty	-8539
▁quality	-8540
▁retreat	-8541
▁sayings	-8542
▁seasons	-8543
▁secrets	-8544
▁subdued	-8545
▁teacher	-8546
▁thanked	-8547
▁useless	-8548
righteous	-8549
▁adultery	-8550
▁although	-8551
▁ascended	-8552
▁becoming	-8553
▁election	-8554
▁encamped	-8555
▁memorial	-8556
▁murderer	-8557
▁prisoner	-8558
▁proclaim	-8559
▁province	-8560
▁pursuing	-8561
▁standeth	-8562
▁unreason	-8563
▁withered	-8564
▁Jehoiakim	-8565
▁addressed	-8566
▁appearing	-8567
▁ascending	-8568
▁condemned	-8569
▁countless	-8570
▁fourscore	-8571
▁innocence	-8572
▁reference	-8573
▁sincerity	-8574
▁strongest	-8575
▁suspended	-8576
▁unnatural	-8577
▁acceptable	-8578
▁affections	-8579
▁brightness	-8580
▁infinitely	-8581
▁strengthen	-8582
▁successful	-8583
▁distinction	-8584
▁instruction	-8585
▁uncleanness	-8586
▁transgressed	-8587
AD	-8588
At	-8589
IG	-8590
▁z	-8591
--(	-8592
Bec	-8593
God	-8594
ado	-8595
box	-8596
edy	-8597
iac	-8598
lit	-8599
ppa	-8600
▁Eu	-8601
abel	-8602
aith	-8603
hale	-8604
ilah	-8605
llen	-8606
peak	-8607
rier	-8608
uzza	-8609
your	-8610
▁9:2	-8611
▁9:4	-8612
▁9:8	-8613
▁Din	-8614
▁Len	-8615
▁Rat	-8616
▁Sur	-8617
▁hem	-8618
▁mas	-8619
▁ost	-8620
▁wal	-8621
▁wee	-8622
amite	-8623
arian	-8624
athar	-8625
atisf	-8626
month	-8627
otent	-8628
pherd	-8629
▁10:3	-8630
▁11:6	-8631
▁13:4	-8632
▁24:5	-8633
▁26:5	-8634
▁3:20	-8635
▁4:17	-8636
▁6:15	-8637
▁7:11	-8638
▁8:10	-8639
▁9:12	-8640
▁9:16	-8641
▁Ahas	-8642
▁Away	-8643
▁Chat	-8644
▁Ever	-8645
▁Next	-8646
▁Supp	-8647
▁asyl	-8648
▁beef	-8649
▁duke	-8650
▁encl	-8651
▁euen	-8652
▁gown	-8653
▁hats	-8654
▁lawn	-8655
▁lung	-8656
▁pond	-8657
▁rout	-8658
▁shel	-8659
▁tore	-8660
▁trap	-8661
▁whar	-8662
▁worn	-8663
aneous	-8664
course	-8665
estion	-8666
itably	-8667
oureth	-8668
shaped	-8669
▁10:13	-8670
▁10:14	-8671
▁12:13	-8672
▁Glass	-8673
▁Guild	-8674
▁Happy	-8675
▁Power	-8676
▁Sihon	-8677
▁Thine	-8678
▁beget	-8679
▁brand	-8680
▁cakes	-8681
▁calam	-8682
▁cares	-8683
▁drank	-8684
▁drops	-8685
▁ephah	-8686
▁flies	-8687
▁glist	-8688
▁greet	-8689
▁kinds	-8690
▁older	-8691
▁ornam	-8692
▁stuck	-8693
▁swarm	-8694
▁twain	-8695
iveness	-8696
▁Camden	-8697
▁Carmel	-8698
▁Merari	-8699
▁amount	-8700
▁disord	-8701
▁eleven	-8702
▁errand	-8703
▁folded	-8704
▁infirm	-8705
▁liquid	-8706
▁lowest	-8707
▁missed	-8708
▁ninety	-8709
▁region	-8710
▁repeat	-8711
▁rested	-8712
▁retain	-8713
▁spared	-8714
▁Majesty	-8715
▁Rosetta	-8716
▁battles	-8717
▁benefit	-8718
▁blanket	-8719
▁blubber	-8720
▁boiling	-8721
▁carcase	-8722
▁clearly	-8723
▁earthqu	-8724
▁execute	-8725
▁expense	-8726
▁happily	-8727
▁hoisted	-8728
▁missing	-8729
▁pattern	-8730
▁porters	-8731
▁protest	-8732
▁shields	-8733
▁steward	-8734
▁terrors	-8735
▁warning	-8736
▁Consider	-8737
▁Pioneers	-8738
▁Shepherd	-8739
▁Whatever	-8740
▁attitude	-8741
▁bitterly	-8742
▁ceremony	-8743
▁contrast	-8744
▁evidence	-8745
▁nameless	-8746
▁positive	-8747
▁presents	-8748
▁promises	-8749
▁purchase	-8750
▁rendered	-8751
▁shocking	-8752
▁solitude	-8753
▁sprinkle	-8754
▁teaching	-8755
▁belonging	-8756
▁ceaseless	-8757
▁contribut	-8758
▁elsewhere	-8759
▁materials	-8760
▁moonlight	-8761
▁patiently	-8762
▁permitted	-8763
▁preaching	-8764
▁regularly	-8765
▁tolerably	-8766
▁whirlwind	-8767
▁directions	-8768
▁favourable	-8769
▁glittering	-8770
▁multitudes	-8771
▁proportion	-8772
▁triumphant	-8773
▁differently	-8774
▁firstfruits	-8775
▁unrighteous	-8776
▁comparatively	-8777
AG	-8778
Al	-8779
Be	-8780
__	-8781
bu	-8782
oo	-8783
ys	-8784
000	-8785
EAR	-8786
het	-8787
iph	-8788
ork	-8789
▁57	-8790
▁63	-8791
▁73	-8792
▁Cy	-8793
."--	-8794
ILOR	-8795
gain	-8796
gran	-8797
omor	-8798
pers	-8799
ulip	-8800
upon	-8801
▁Bre	-8802
▁Den	-8803
▁Dev	-8804
▁Fle	-8805
▁HIS	-8806
▁Kad	-8807
▁Mam	-8808
▁Roy	-8809
▁aid	-8810
▁aim	-8811
▁ale	-8812
▁aug	-8813
▁cav	-8814
ITTLE	-8815
abled	-8816
aside	-8817
icted	-8818
itish	-8819
ucing	-8820
uerus	-8821
ushes	-8822
venth	-8823
▁10:4	-8824
▁12:2	-8825
▁12:6	-8826
▁13:3	-8827
▁1:22	-8828
▁26:6	-8829
▁2:23	-8830
▁7:12	-8831
▁8:13	-8832
▁8:14	-8833
▁9:11	-8834
▁9:18	-8835
▁Cale	-8836
▁Conf	-8837
▁Crow	-8838
▁Gath	-8839
▁Loue	-8840
▁Maac	-8841
▁Must	-8842
▁Pend	-8843
▁Send	-8844
▁Vpon	-8845
▁Worm	-8846
▁alas	-8847
▁athe	-8848
▁aver	-8849
▁cake	-8850
▁elev	-8851
▁gale	-8852
▁herb	-8853
▁lame	-8854
▁mans	-8855
▁myri	-8856
▁perf	-8857
▁pink	-8858
▁pome	-8859
▁pots	-8860
▁push	-8861
▁puts	-8862
▁rasp	-8863
▁ribb	-8864
▁risk	-8865
▁sane	-8866
▁trib	-8867
ctions	-8868
father	-8869
minded	-8870
pelled	-8871
rezzar	-8872
urable	-8873
▁10:16	-8874
▁11:12	-8875
▁Balak	-8876
▁Being	-8877
▁Fiend	-8878
▁Heark	-8879
▁Sheba	-8880
▁Three	-8881
▁Woman	-8882
▁adopt	-8883
▁afore	-8884
▁bathe	-8885
▁dimin	-8886
▁durst	-8887
▁elbow	-8888
▁exhib	-8889
▁forso	-8890
▁hears	-8891
▁prime	-8892
▁punct	-8893
▁rolls	-8894
▁sadly	-8895
▁shown	-8896
▁skies	-8897
▁stare	-8898
▁token	-8899
▁twink	-8900
▁urged	-8901
▁waits	-8902
▁whist	-8903
imonies	-8904
ouncing	-8905
▁Almost	-8906
▁Beyond	-8907
▁Cherub	-8908
▁Hamath	-8909
▁Having	-8910
▁Isaiah	-8911
▁SAILOR	-8912
▁Square	-8913
▁Whence	-8914
▁accent	-8915
▁accord	-8916
▁amused	-8917
▁asylum	-8918
▁belief	-8919
▁comest	-8920
▁contro	-8921
▁dashed	-8922
▁depths	-8923
▁firmly	-8924
▁gotten	-8925
▁handed	-8926
▁invari	-8927
▁locust	-8928
▁meanes	-8929
▁murmur	-8930
▁nobles	-8931
▁perman	-8932
▁presum	-8933
▁repose	-8934
▁riddle	-8935
▁rights	-8936
▁specul	-8937
▁varied	-8938
aneously	-8939
kerchief	-8940
kindness	-8941
▁Horatio	-8942
▁Steeles	-8943
▁apparel	-8944
▁attract	-8945
▁comrade	-8946
▁degrees	-8947
▁follows	-8948
▁heavily	-8949
▁inquire	-8950
▁largest	-8951
▁leeward	-8952
▁lessons	-8953
▁praying	-8954
▁presume	-8955
▁privile	-8956
▁sinking	-8957
▁statute	-8958
▁stories	-8959
▁stumble	-8960
▁theatre	-8961
▁trodden	-8962
▁usually	-8963
▁audience	-8964
▁blossoms	-8965
▁calmness	-8966
▁describe	-8967
▁farewell	-8968
▁gardener	-8969
▁harmless	-8970
▁marching	-8971
▁murmured	-8972
▁pomegran	-8973
▁prophecy	-8974
▁quantity	-8975
▁repented	-8976
▁sabbaths	-8977
▁sideways	-8978
▁sympathy	-8979
▁weakness	-8980
▁withhold	-8981
▁Ahasuerus	-8982
▁Dashwoods	-8983
▁attempted	-8984
▁halfpence	-8985
▁northward	-8986
▁preparing	-8987
▁preserved	-8988
▁southward	-8989
▁spreading	-8990
▁sweetness	-8991
▁uncomfort	-8992
▁distinctly	-8993
▁principles	-8994
▁surrounded	-8995
▁unexpected	-8996
▁arrangement	-8997
▁testimonies	-8998
▁disagreeable	-8999
▁handkerchief	-9000
▁Nebuchadrezzar	-9001
AV	-9002
ED	-9003
ST	-9004
III	-9005
bye	-9006
eur	-9007
kah	-9008
mes	-9009
net	-9010
tem	-9011
▁Ra	-9012
iate	-9013
inke	-9014
orse	-9015
oure	-9016
part	-9017
rels	-9018
same	-9019
uity	-9020
unes	-9021
wixt	-9022
▁8:3	-9023
▁8:7	-9024
▁Bra	-9025
▁Cow	-9026
▁Equ	-9027
▁Ins	-9028
▁Nun	-9029
▁Sub	-9030
▁dar	-9031
▁haw	-9032
▁jar	-9033
▁omn	-9034
▁spy	-9035
▁sul	-9036
▁vse	-9037
▁wol	-9038
alrym	-9039
bable	-9040
grown	-9041
iring	-9042
plate	-9043
resse	-9044
▁10:9	-9045
▁11:1	-9046
▁11:2	-9047
▁11:3	-9048
▁11:4	-9049
▁12:7	-9050
▁13:6	-9051
▁13:7	-9052
▁17:5	-9053
▁2:22	-9054
▁7:20	-9055
▁9:17	-9056
▁Cain	-9057
▁Corn	-9058
▁Cour	-9059
▁Elis	-9060
▁Fare	-9061
▁Mink	-9062
▁bark	-9063
▁glow	-9064
▁gunw	-9065
▁halt	-9066
▁joke	-9067
▁lace	-9068
▁ling	-9069
▁pall	-9070
▁pear	-9071
▁spec	-9072
▁stab	-9073
▁suck	-9074
▁ugly	-9075
inesse	-9076
llable	-9077
resses	-9078
retion	-9079
▁Amnon	-9080
▁Betty	-9081
▁Caleb	-9082
▁Elias	-9083
▁Forth	-9084
▁Gener	-9085
▁Gogol	-9086
▁Ophel	-9087
▁Tarsh	-9088
▁agent	-9089
▁alien	-9090
▁angle	-9091
▁blown	-9092
▁coats	-9093
▁crims	-9094
▁cryst	-9095
▁defic	-9096
▁engra	-9097
▁facts	-9098
▁insol	-9099
▁lease	-9100
▁raven	-9101
▁today	-9102
▁trade	-9103
▁trout	-9104
▁ungod	-9105
▁vines	-9106
▁wages	-9107
Because	-9108
ensible	-9109
▁Dalrym	-9110
▁George	-9111
▁Jeshua	-9112
▁LITTLE	-9113
▁Others	-9114
▁Pendra	-9115
▁Seeing	-9116
▁amazed	-9117
▁cannib	-9118
▁coolly	-9119
▁dining	-9120
▁energy	-9121
▁floods	-9122
▁hunted	-9123
▁hunter	-9124
▁inches	-9125
▁inland	-9126
▁insert	-9127
▁jacket	-9128
▁justly	-9129
▁leaped	-9130
▁masses	-9131
▁merits	-9132
▁overfl	-9133
▁pistol	-9134
▁portra	-9135
▁powder	-9136
▁prejud	-9137
▁renown	-9138
▁shades	-9139
▁superb	-9140
▁vapour	-9141
ulations	-9142
▁Villars	-9143
▁actions	-9144
▁century	-9145
▁compare	-9146
▁conceit	-9147
▁diamond	-9148
▁dischar	-9149
▁disease	-9150
▁drowned	-9151
▁element	-9152
▁founded	-9153
▁manager	-9154
▁plagues	-9155
▁returns	-9156
▁shewing	-9157
▁stature	-9158
▁sunrise	-9159
▁Catholic	-9160
▁Laughing	-9161
▁Montague	-9162
▁Tarshish	-9163
▁accounts	-9164
▁appetite	-9165
▁concerns	-9166
▁confined	-9167
▁examined	-9168
▁extended	-9169
▁fourteen	-9170
▁gigantic	-9171
▁harpoons	-9172
▁indirect	-9173
▁official	-9174
▁perverse	-9175
▁speedily	-9176
▁starting	-9177
▁ventured	-9178
aterpillar	-9179
▁Todhunter	-9180
▁alongside	-9181
▁concealed	-9182
▁inquiries	-9183
▁ministers	-9184
▁preferred	-9185
▁reasoning	-9186
▁receiveth	-9187
▁scripture	-9188
▁surprized	-9189
▁whoredoms	-9190
▁artificial	-9191
▁characters	-9192
▁conclusion	-9193
▁estimation	-9194
▁ministered	-9195
▁remarkably	-9196
▁accompanied	-9197
▁adversaries	-9198
▁deliverance	-9199
▁performance	-9200
▁recollected	-9201
▁recommended	-9202
▁resemblance	-9203
▁circumcision	-9204
▁thanksgiving	-9205
▁unaccountable	-9206
▁uncomfortable	-9207
";	-9208
ION	-9209
aps	-9210
eel	-9211
lla	-9212
pha	-9213
pit	-9214
vag	-9215
yan	-9216
▁DO	-9217
▁ST	-9218
▁Wa	-9219
▁Zo	-9220
▁et	-9221
Emma	-9222
aire	-9223
asha	-9224
atha	-9225
ctic	-9226
idue	-9227
iffe	-9228
racy	-9229
rage	-9230
send	-9231
ules	-9232
▁109	-9233
▁Cas	-9234
▁Dep	-9235
▁End	-9236
▁Fed	-9237
▁Naz	-9238
▁Oph	-9239
▁Zel	-9240
▁agg	-9241
▁ath	-9242
▁dip	-9243
▁dru	-9244
▁fox	-9245
▁gru	-9246
▁hew	-9247
▁pig	-9248
▁tie	-9249
auius	-9250
inked	-9251
iters	-9252
itute	-9253
mates	-9254
otham	-9255
ships	-9256
ubble	-9257
ullam	-9258
untar	-9259
urous	-9260
▁11:8	-9261
▁11:9	-9262
▁12:8	-9263
▁13:1	-9264
▁14:1	-9265
▁14:7	-9266
▁15:7	-9267
▁16:2	-9268
▁16:4	-9269
▁16:6	-9270
▁16:9	-9271
▁22:6	-9272
▁24:6	-9273
▁7:17	-9274
▁8:16	-9275
▁8:17	-9276
▁9:15	-9277
▁9:19	-9278
▁Arab	-9279
▁Kish	-9280
▁Much	-9281
▁Part	-9282
▁Vict	-9283
▁WILL	-9284
▁barn	-9285
▁buff	-9286
▁buoy	-9287
▁dash	-9288
▁harb	-9289
▁heau	-9290
▁howl	-9291
▁impl	-9292
▁page	-9293
▁poem	-9294
▁ratt	-9295
▁subl	-9296
▁tide	-9297
▁unfe	-9298
▁whip	-9299
anquet	-9300
bearer	-9301
hedral	-9302
ifully	-9303
ington	-9304
osheth	-9305
uments	-9306
veland	-9307
▁10:17	-9308
▁11:18	-9309
▁12:11	-9310
▁12:12	-9311
▁12:14	-9312
▁14:11	-9313
▁Caska	-9314
▁Chief	-9315
▁Diana	-9316
▁Heere	-9317
▁India	-9318
▁Joram	-9319
▁Korah	-9320
▁Laura	-9321
▁Titin	-9322
▁artic	-9323
▁aspir	-9324
▁bears	-9325
▁bount	-9326
▁chuse	-9327
▁coins	-9328
▁disin	-9329
▁disob	-9330
▁fatig	-9331
▁fores	-9332
▁funny	-9333
▁guile	-9334
▁hasty	-9335
▁heaps	-9336
▁irreg	-9337
▁marks	-9338
▁patch	-9339
▁poets	-9340
▁realm	-9341
▁rever	-9342
▁ropes	-9343
▁roses	-9344
▁seene	-9345
▁split	-9346
▁sweat	-9347
▁vener	-9348
▁vnder	-9349
▁warri	-9350
▁wrest	-9351
fashion	-9352
justice	-9353
▁Abisha	-9354
▁Baasha	-9355
▁Gather	-9356
▁Nethan	-9357
▁People	-9358
▁Uzziah	-9359
▁Whales	-9360
▁anoint	-9361
▁assume	-9362
▁astray	-9363
▁bestow	-9364
▁brooks	-9365
▁create	-9366
▁earned	-9367
▁exchan	-9368
▁eyeing	-9369
▁finest	-9370
▁girded	-9371
▁hearty	-9372
▁incomp	-9373
▁induce	-9374
▁jewels	-9375
▁learnt	-9376
▁legend	-9377
▁melted	-9378
▁naught	-9379
▁needle	-9380
▁nephew	-9381
▁nerves	-9382
▁observ	-9383
▁onward	-9384
▁pencil	-9385
▁phrase	-9386
▁remind	-9387
▁shower	-9388
▁sleeps	-9389
▁strive	-9390
▁waving	-9391
servants	-9392
untarily	-9393
▁Gershon	-9394
▁Hearken	-9395
▁balance	-9396
▁bending	-9397
▁calleth	-9398
▁deepest	-9399
▁dismiss	-9400
▁exposed	-9401
▁fulness	-9402
▁haughty	-9403
▁orphans	-9404
▁renewed	-9405
▁reserve	-9406
▁residue	-9407
▁slender	-9408
▁springs	-9409
▁thieves	-9410
▁workers	-9411
fashioned	-9412
▁Gedaliah	-9413
▁Landlord	-9414
▁arranged	-9415
▁declined	-9416
▁disciple	-9417
▁disgrace	-9418
▁drawings	-9419
▁improved	-9420
▁millions	-9421
▁miracles	-9422
▁muttered	-9423
▁oblation	-9424
▁politics	-9425
▁practice	-9426
▁relation	-9427
▁romantic	-9428
▁standard	-9429
▁strictly	-9430
▁stripped	-9431
▁supplied	-9432
▁anointing	-9433
▁believing	-9434
▁contained	-9435
▁courtiers	-9436
▁essential	-9437
▁flattered	-9438
▁irregular	-9439
▁journeyed	-9440
▁ordinance	-9441
▁principle	-9442
▁provinces	-9443
▁reverence	-9444
▁testified	-9445
▁calculated	-9446
▁connection	-9447
▁contradict	-9448
▁distressed	-9449
▁encouraged	-9450
▁flattering	-9451
▁inhabitant	-9452
▁recompense	-9453
▁whispering	-9454
▁Gingerbread	-9455
▁comfortably	-9456
▁excessively	-9457
▁independent	-9458
▁intercourse	-9459
Go	-9460
bal	-9461
bby	-9462
izz	-9463
oah	-9464
omy	-9465
par	-9466
umm	-9467
veh	-9468
▁58	-9469
▁Er	-9470
▁IS	-9471
▁Ir	-9472
▁Ty	-9473
▁gn	-9474
,"--	-9475
Lord	-9476
deck	-9477
eled	-9478
emen	-9479
give	-9480
ills	-9481
ipsy	-9482
ival	-9483
omen	-9484
orus	-9485
pass	-9486
pses	-9487
such	-9488
uiah	-9489
wart	-9490
▁Che	-9491
▁Clo	-9492
▁Deb	-9493
▁Esh	-9494
▁Fin	-9495
▁Gaz	-9496
▁III	-9497
▁Ire	-9498
▁Ked	-9499
▁Ori	-9500
▁Sey	-9501
▁Suc	-9502
▁cit	-9503
▁ecc	-9504
▁jub	-9505
▁tub	-9506
adiah	-9507
eries	-9508
ersed	-9509
groom	-9510
icate	-9511
ondas	-9512
pable	-9513
raint	-9514
table	-9515
ulent	-9516
ymour	-9517
▁13:9	-9518
▁16:3	-9519
▁1:23	-9520
▁1:24	-9521
▁3:21	-9522
▁4:21	-9523
▁5:19	-9524
▁6:17	-9525
▁7:18	-9526
▁7:19	-9527
▁8:15	-9528
▁9:20	-9529
▁Abel	-9530
▁Conc	-9531
▁Deep	-9532
▁Ezra	-9533
▁Hilk	-9534
▁Jove	-9535
▁Nine	-9536
▁Shem	-9537
▁True	-9538
▁bubb	-9539
▁corp	-9540
▁damp	-9541
▁fath	-9542
▁mask	-9543
▁obst	-9544
▁orac	-9545
▁peep	-9546
▁plat	-9547
▁pref	-9548
▁unob	-9549
▁vale	-9550
▁wont	-9551
gilead	-9552
idding	-9553
nament	-9554
orting	-9555
ossess	-9556
rested	-9557
rising	-9558
ursday	-9559
▁10:18	-9560
▁11:14	-9561
▁11:16	-9562
▁12:10	-9563
▁13:11	-9564
▁13:13	-9565
▁13:14	-9566
▁Cinna	-9567
▁Honor	-9568
▁Patty	-9569
▁Sonne	-9570
▁beene	-9571
▁cared	-9572
▁climb	-9573
▁coals	-9574
▁crash	-9575
▁crazy	-9576
▁dieth	-9577
▁embra	-9578
▁felic	-9579
▁finds	-9580
▁frock	-9581
▁gazed	-9582
▁grind	-9583
▁hadst	-9584
▁harps	-9585
▁joint	-9586
▁limit	-9587
▁moist	-9588
▁pulse	-9589
▁roads	-9590
▁scour	-9591
▁shudd	-9592
▁strip	-9593
▁stump	-9594
▁sympt	-9595
▁trace	-9596
▁uncon	-9597
▁uneas	-9598
▁using	-9599
▁weigh	-9600
▁wreat	-9601
itively	-9602
nothing	-9603
olesome	-9604
onshire	-9605
▁Baruch	-9606
▁Manhat	-9607
▁Nobody	-9608
▁Shiloh	-9609
▁abound	-9610
▁accuse	-9611
▁astern	-9612
▁burial	-9613
▁cedars	-9614
▁closer	-9615
▁cotton	-9616
▁crowds	-9617
▁dismal	-9618
▁dreary	-9619
▁empire	-9620
▁expand	-9621
▁extrem	-9622
▁feasts	-9623
▁gloomy	-9624
▁guided	-9625
▁hateth	-9626
▁hinted	-9627
▁impert	-9628
▁leaven	-9629
▁loaded	-9630
▁louder	-9631
▁marble	-9632
▁nostri	-9633
▁owners	-9634
▁potent	-9635
▁remote	-9636
▁saidst	-9637
▁sighed	-9638
▁source	-9639
▁speaks	-9640
▁tricks	-9641
▁widows	-9642
▁Council	-9643
▁Hilkiah	-9644
▁Ireland	-9645
▁Seymour	-9646
▁Shaphan	-9647
▁burdens	-9648
▁casting	-9649
▁causeth	-9650
▁contain	-9651
▁convent	-9652
▁cordial	-9653
▁crimson	-9654
▁disturb	-9655
▁dragged	-9656
▁earlier	-9657
▁examine	-9658
▁filling	-9659
▁hideous	-9660
▁hunting	-9661
▁impress	-9662
▁keepers	-9663
▁pockets	-9664
▁resting	-9665
▁rigging	-9666
▁shittim	-9667
▁sojourn	-9668
▁supreme	-9669
▁temples	-9670
▁testify	-9671
▁wearied	-9672
▁western	-9673
▁yielded	-9674
▁Children	-9675
▁Thursday	-9676
▁Townsend	-9677
▁animated	-9678
▁applause	-9679
▁begotten	-9680
▁conclude	-9681
▁conveyed	-9682
▁cruising	-9683
▁daylight	-9684
▁depended	-9685
▁everyone	-9686
▁extravag	-9687
▁honoured	-9688
▁hurrying	-9689
▁husbands	-9690
▁insisted	-9691
▁involved	-9692
▁prairies	-9693
▁proposal	-9694
▁searched	-9695
▁signific	-9696
▁suspense	-9697
▁swinging	-9698
▁vexation	-9699
▁Chatterer	-9700
▁Cleveland	-9701
▁centuries	-9702
▁complaint	-9703
▁deceitful	-9704
▁detective	-9705
▁doubtless	-9706
▁expecting	-9707
▁falsehood	-9708
▁forthwith	-9709
▁introduce	-9710
▁landscape	-9711
▁neglected	-9712
▁remaineth	-9713
▁sensation	-9714
▁sprinkled	-9715
▁suggested	-9716
▁threshing	-9717
▁benevolent	-9718
▁bitterness	-9719
▁forecastle	-9720
▁suspicions	-9721
▁innumerable	-9722
▁lamentation	-9723
▁embarrassment	-9724
▁lovingkindness	-9725
AB	-9726
OW	-9727
SE	-9728
AND	-9729
ais	-9730
amm	-9731
awd	-9732
isk	-9733
lig	-9734
pie	-9735
urg	-9736
zes	-9737
▁71	-9738
Fish	-9739
Such	-9740
abas	-9741
agan	-9742
bber	-9743
cony	-9744
epst	-9745
hast	-9746
irst	-9747
orte	-9748
otes	-9749
pion	-9750
recy	-9751
tles	-9752
yrus	-9753
▁102	-9754
▁Hiv	-9755
▁Ken	-9756
▁Lat	-9757
▁Six	-9758
▁mob	-9759
▁owe	-9760
▁rud	-9761
Never	-9762
aford	-9763
bling	-9764
eneal	-9765
iezer	-9766
itage	-9767
lesse	-9768
lying	-9769
utton	-9770
▁11:7	-9771
▁12:1	-9772
▁13:8	-9773
▁14:8	-9774
▁15:6	-9775
▁15:8	-9776
▁16:1	-9777
▁16:8	-9778
▁18:5	-9779
▁19:5	-9780
▁19:8	-9781
▁4:22	-9782
▁5:20	-9783
▁6:16	-9784
▁7:25	-9785
▁Ashd	-9786
▁Banq	-9787
▁Chan	-9788
▁Elip	-9789
▁Hood	-9790
▁Last	-9791
▁Leah	-9792
▁Naam	-9793
▁Rejo	-9794
▁Salt	-9795
▁Save	-9796
▁Vane	-9797
▁Walk	-9798
▁bade	-9799
▁clad	-9800
▁damn	-9801
▁dung	-9802
▁eggs	-9803
▁eyeb	-9804
▁haul	-9805
▁irre	-9806
▁kine	-9807
▁navy	-9808
▁oint	-9809
▁quen	-9810
▁runs	-9811
▁sted	-9812
▁stom	-9813
▁tame	-9814
▁warn	-9815
▁yawn	-9816
alling	-9817
encies	-9818
icular	-9819
ispens	-9820
letons	-9821
ouched	-9822
rogate	-9823
utable	-9824
▁10:19	-9825
▁10:20	-9826
▁11:15	-9827
▁11:21	-9828
▁13:10	-9829
▁13:12	-9830
▁Afric	-9831
▁Court	-9832
▁Cross	-9833
▁Cyrus	-9834
▁Dutch	-9835
▁Ephes	-9836
▁Grove	-9837
▁Jepht	-9838
▁Looke	-9839
▁Major	-9840
▁Malch	-9841
▁Seven	-9842
▁Usher	-9843
▁cards	-9844
▁demon	-9845
▁eagle	-9846
▁entry	-9847
▁faded	-9848
▁farms	-9849
▁float	-9850
▁grows	-9851
▁holes	-9852
▁holid	-9853
▁incor	-9854
▁keeps	-9855
▁leapt	-9856
▁moust	-9857
▁necks	-9858
▁robes	-9859
▁ruled	-9860
▁scold	-9861
▁seize	-9862
▁shirt	-9863
▁spray	-9864
▁staid	-9865
▁total	-9866
▁unbel	-9867
outhern	-9868
uckling	-9869
▁Honour	-9870
▁Return	-9871
▁almond	-9872
▁beware	-9873
▁bushes	-9874
▁chaise	-9875
▁extent	-9876
▁geneal	-9877
▁lawyer	-9878
▁league	-9879
▁meadow	-9880
▁minded	-9881
▁riding	-9882
▁sleepe	-9883
▁sticks	-9884
▁storms	-9885
▁sullen	-9886
▁undert	-9887
▁unfold	-9888
epstakes	-9889
lessness	-9890
omething	-9891
oubtedly	-9892
▁Johanan	-9893
▁Pasture	-9894
▁Wherein	-9895
▁asunder	-9896
▁balcony	-9897
▁continu	-9898
▁courses	-9899
▁darting	-9900
▁devoted	-9901
▁disobed	-9902
▁draught	-9903
▁exclaim	-9904
▁exhaust	-9905
▁	-9906
e	-9907
t	-9908
a	-9909
o	-9910
h	-9911
n	-9912
s	-9913
i	-9914
r	-9915
d	-9916
l	-9917
u	-9918
m	-9919
f	-9920
,	-9921
w	-9922
c	-9923
y	-9924
g	-9925
p	-9926
b	-9927
v	-9928
.	-9929
k	-9930
:	-9931
I	-9932
A	-9933
"	-9934
;	-9935
-	-9936
1	-9937
T	-9938
'	-9939
2	-9940
S	-9941
O	-9942
M	-9943
L	-9944
H	-9945
B	-9946
D	-9947
W	-9948
3	-9949
R	-9950
E	-9951
?	-9952
G	-9953
C	-9954
4	-9955
x	-9956
!	-9957
J	-9958
F	-9959
j	-9960
N	-9961
5	-9962
q	-9963
P	-9964
6	-9965
7	-9966
8	-9967
9	-9968
0	-9969
z	-9970
Y	-9971
K	-9972
)	-9973
(	-9974
U	-9975
V	-9976
_	-9977
Z	-9978
Q	-9979
}	-9980
*	-9981
`	-9982
X	-9983
]	-9984
[	-9985
&	-9986
/	-9987
$	-9988
�	-9989
%	-9990
>	-9991
+	-9992
<	-9993
@	-9994
~	-9995
